#include "magic_wand_model_data.h"

// We need to keep the data array aligned on some architectures.
#ifdef __has_attribute
#define HAVE_ATTRIBUTE(x) __has_attribute(x)
#else
#define HAVE_ATTRIBUTE(x) 0
#endif
#if HAVE_ATTRIBUTE(aligned) || (defined(__GNUC__) && !defined(__clang__))
#define DATA_ALIGN_ATTRIBUTE __attribute__((aligned(4)))
#else
#define DATA_ALIGN_ATTRIBUTE
#endif

const unsigned char g_magic_wand_model_data[] DATA_ALIGN_ATTRIBUTE = {
  0x1c, 0x00, 0x00, 0x00, 0x54, 0x46, 0x4c, 0x33, 0x14, 0x00, 0x20, 0x00,
  0x04, 0x00, 0x08, 0x00, 0x0c, 0x00, 0x10, 0x00, 0x14, 0x00, 0x00, 0x00,
  0x18, 0x00, 0x1c, 0x00, 0x14, 0x00, 0x00, 0x00, 0x03, 0x00, 0x00, 0x00,
  0x18, 0x00, 0x00, 0x00, 0x2c, 0x00, 0x00, 0x00, 0xd8, 0x00, 0x00, 0x00,
  0x2c, 0x00, 0x00, 0x00, 0x80, 0x00, 0x00, 0x00, 0x78, 0x00, 0x00, 0x00,
  0x05, 0x00, 0x00, 0x00, 0x28, 0x07, 0x00, 0x00, 0x44, 0x06, 0x00, 0x00,
  0xbc, 0x03, 0x00, 0x00, 0xf8, 0x02, 0x00, 0x00, 0xac, 0x01, 0x00, 0x00,
  0x01, 0x00, 0x00, 0x00, 0xd0, 0x00, 0x00, 0x00, 0x14, 0x00, 0x00, 0x00,
  0x98, 0x32, 0x00, 0x00, 0x94, 0x32, 0x00, 0x00, 0x8c, 0x31, 0x00, 0x00,
  0xd8, 0x30, 0x00, 0x00, 0x30, 0x30, 0x00, 0x00, 0xbc, 0x2f, 0x00, 0x00,
  0x50, 0x2f, 0x00, 0x00, 0x00, 0x13, 0x00, 0x00, 0xec, 0x11, 0x00, 0x00,
  0x10, 0x10, 0x00, 0x00, 0xb4, 0x07, 0x00, 0x00, 0x6c, 0x32, 0x00, 0x00,
  0x68, 0x32, 0x00, 0x00, 0x64, 0x32, 0x00, 0x00, 0x60, 0x32, 0x00, 0x00,
  0x5c, 0x32, 0x00, 0x00, 0x58, 0x32, 0x00, 0x00, 0x54, 0x32, 0x00, 0x00,
  0x50, 0x32, 0x00, 0x00, 0x3c, 0x00, 0x00, 0x00, 0x00, 0x00, 0x00, 0x00,
  0x01, 0x00, 0x00, 0x00, 0x0c, 0x00, 0x00, 0x00, 0x08, 0x00, 0x0c, 0x00,
  0x04, 0x00, 0x08, 0x00, 0x08, 0x00, 0x00, 0x00, 0x08, 0x00, 0x00, 0x00,
  0x13, 0x00, 0x00, 0x00, 0x13, 0x00, 0x00, 0x00, 0x6d, 0x69, 0x6e, 0x5f,
  0x72, 0x75, 0x6e, 0x74, 0x69, 0x6d, 0x65, 0x5f, 0x76, 0x65, 0x72, 0x73,
  0x69, 0x6f, 0x6e, 0x00, 0xfa, 0xce, 0xff, 0xff, 0x04, 0x00, 0x00, 0x00,
  0x10, 0x00, 0x00, 0x00, 0x31, 0x2e, 0x35, 0x2e, 0x30, 0x00, 0x00, 0x00,
  0x00, 0x00, 0x00, 0x00, 0x00, 0x00, 0x00, 0x00, 0x0f, 0x00, 0x00, 0x00,
  0x4d, 0x4c, 0x49, 0x52, 0x20, 0x43, 0x6f, 0x6e, 0x76, 0x65, 0x72, 0x74,
  0x65, 0x64, 0x2e, 0x00, 0x00, 0x00, 0x0e, 0x00, 0x18, 0x00, 0x04, 0x00,
  0x08, 0x00, 0x0c, 0x00, 0x10, 0x00, 0x14, 0x00, 0x0e, 0x00, 0x00, 0x00,
  0x14, 0x00, 0x00, 0x00, 0x5c, 0x00, 0x00, 0x00, 0x60, 0x00, 0x00, 0x00,
  0x64, 0x00, 0x00, 0x00, 0x84, 0x00, 0x00, 0x00, 0x12, 0x00, 0x00, 0x00,
  0x58, 0x31, 0x00, 0x00, 0xe8, 0x30, 0x00, 0x00, 0x44, 0x30, 0x00, 0x00,
  0x9c, 0x2f, 0x00, 0x00, 0xf4, 0x2e, 0x00, 0x00, 0x94, 0x2e, 0x00, 0x00,
  0x2c, 0x2e, 0x00, 0x00, 0xd8, 0x11, 0x00, 0x00, 0xbc, 0x10, 0x00, 0x00,
  0xe0, 0x0e, 0x00, 0x00, 0x0c, 0x06, 0x00, 0x00, 0x28, 0x05, 0x00, 0x00,
  0xe8, 0x03, 0x00, 0x00, 0x3c, 0x03, 0x00, 0x00, 0x98, 0x02, 0x00, 0x00,
  0xd4, 0x01, 0x00, 0x00, 0x10, 0x01, 0x00, 0x00, 0x84, 0x00, 0x00, 0x00,
  0x01, 0x00, 0x00, 0x00, 0x00, 0x00, 0x00, 0x00, 0x01, 0x00, 0x00, 0x00,
  0x11, 0x00, 0x00, 0x00, 0x08, 0x00, 0x00, 0x00, 0x74, 0x05, 0x00, 0x00,
  0x94, 0x04, 0x00, 0x00, 0x78, 0x03, 0x00, 0x00, 0xbc, 0x02, 0x00, 0x00,
  0x30, 0x02, 0x00, 0x00, 0x50, 0x01, 0x00, 0x00, 0xa8, 0x00, 0x00, 0x00,
  0x10, 0x00, 0x00, 0x00, 0x04, 0x00, 0x00, 0x00, 0x6d, 0x61, 0x69, 0x6e,
  0x00, 0x00, 0x00, 0x00, 0x7a, 0xff, 0xff, 0xff, 0x00, 0x00, 0x00, 0x09,
  0x04, 0x00, 0x00, 0x00, 0x1c, 0x00, 0x00, 0x00, 0x10, 0x00, 0x00, 0x00,
  0x04, 0x00, 0x00, 0x00, 0xf6, 0xcf, 0xff, 0xff, 0x00, 0x00, 0x80, 0x3f,
  0x01, 0x00, 0x00, 0x00, 0x11, 0x00, 0x00, 0x00, 0x01, 0x00, 0x00, 0x00,
  0x10, 0x00, 0x00, 0x00, 0xa0, 0xfa, 0xff, 0xff, 0x19, 0x00, 0x00, 0x00,
  0x00, 0x00, 0x00, 0x19, 0x01, 0x00, 0x00, 0x00, 0x84, 0xcf, 0xff, 0xff,
  0x14, 0x00, 0x00, 0x00, 0x12, 0x00, 0x00, 0x00, 0x18, 0x00, 0x00, 0x00,
  0x30, 0x00, 0x00, 0x00, 0x20, 0x00, 0x00, 0x00, 0x02, 0x00, 0x00, 0x00,
  0x01, 0x00, 0x00, 0x00, 0x03, 0x00, 0x00, 0x00, 0x08, 0x00, 0x00, 0x00,
  0x49, 0x64, 0x65, 0x6e, 0x74, 0x69, 0x74, 0x79, 0x00, 0x00, 0x00, 0x00,
  0x02, 0x00, 0x00, 0x00, 0xff, 0xff, 0xff, 0xff, 0x03, 0x00, 0x00, 0x00,
  0x68, 0xd0, 0xff, 0xff, 0x00, 0x00, 0x0e, 0x00, 0x18, 0x00, 0x08, 0x00,
  0x0c, 0x00, 0x10, 0x00, 0x07, 0x00, 0x14, 0x00, 0x0e, 0x00, 0x00, 0x00,
  0x00, 0x00, 0x00, 0x08, 0x03, 0x00, 0x00, 0x00, 0x18, 0x00, 0x00, 0x00,
  0x0c, 0x00, 0x00, 0x00, 0x04, 0x00, 0x00, 0x00, 0x84, 0xcf, 0xff, 0xff,
  0x01, 0x00, 0x00, 0x00, 0x10, 0x00, 0x00, 0x00, 0x03, 0x00, 0x00, 0x00,
  0x0f, 0x00, 0x00, 0x00, 0x07, 0x00, 0x00, 0x00, 0x04, 0x00, 0x00, 0x00,
  0x0c, 0xd0, 0xff, 0xff, 0x14, 0x00, 0x00, 0x00, 0x11, 0x00, 0x00, 0x00,
  0x18, 0x00, 0x00, 0x00, 0x5c, 0x00, 0x00, 0x00, 0x4c, 0x00, 0x00, 0x00,
  0x02, 0x00, 0x00, 0x00, 0x01, 0x00, 0x00, 0x00, 0x03, 0x00, 0x00, 0x00,
  0x34, 0x00, 0x00, 0x00, 0x73, 0x65, 0x71, 0x75, 0x65, 0x6e, 0x74, 0x69,
  0x61, 0x6c, 0x2f, 0x64, 0x65, 0x6e, 0x73, 0x65, 0x5f, 0x31, 0x2f, 0x4d,
  0x61, 0x74, 0x4d, 0x75, 0x6c, 0x3b, 0x73, 0x65, 0x71, 0x75, 0x65, 0x6e,
  0x74, 0x69, 0x61, 0x6c, 0x2f, 0x64, 0x65, 0x6e, 0x73, 0x65, 0x5f, 0x31,
  0x2f, 0x42, 0x69, 0x61, 0x73, 0x41, 0x64, 0x64, 0x00, 0x00, 0x00, 0x00,
  0x02, 0x00, 0x00, 0x00, 0xff, 0xff, 0xff, 0xff, 0x03, 0x00, 0x00, 0x00,
  0x0c, 0xd0, 0xff, 0xff, 0xda, 0xfc, 0xff, 0xff, 0x00, 0x00, 0x00, 0x08,
  0x03, 0x00, 0x00, 0x00, 0x24, 0x00, 0x00, 0x00, 0x18, 0x00, 0x00, 0x00,
  0x0c, 0x00, 0x00, 0x00, 0x00, 0x00, 0x06, 0x00, 0x08, 0x00, 0x07, 0x00,
  0x06, 0x00, 0x00, 0x00, 0x00, 0x00, 0x00, 0x01, 0x01, 0x00, 0x00, 0x00,
  0x0f, 0x00, 0x00, 0x00, 0x03, 0x00, 0x00, 0x00, 0x0e, 0x00, 0x00, 0x00,
  0x06, 0x00, 0x00, 0x00, 0x03, 0x00, 0x00, 0x00, 0xe8, 0xfb, 0xff, 0xff,
  0x09, 0x00, 0x00, 0x00, 0x00, 0x00, 0x00, 0x09, 0x01, 0x00, 0x00, 0x00,
  0xcc, 0xd0, 0xff, 0xff, 0x14, 0x00, 0x00, 0x00, 0x10, 0x00, 0x00, 0x00,
  0x18, 0x00, 0x00, 0x00, 0x6c, 0x00, 0x00, 0x00, 0x5c, 0x00, 0x00, 0x00,
  0x02, 0x00, 0x00, 0x00, 0x01, 0x00, 0x00, 0x00, 0x10, 0x00, 0x00, 0x00,
  0x46, 0x00, 0x00, 0x00, 0x73, 0x65, 0x71, 0x75, 0x65, 0x6e, 0x74, 0x69,
  0x61, 0x6c, 0x2f, 0x64, 0x65, 0x6e, 0x73, 0x65, 0x2f, 0x4d, 0x61, 0x74,
  0x4d, 0x75, 0x6c, 0x3b, 0x73, 0x65, 0x71, 0x75, 0x65, 0x6e, 0x74, 0x69,
  0x61, 0x6c, 0x2f, 0x64, 0x65, 0x6e, 0x73, 0x65, 0x2f, 0x52, 0x65, 0x6c,
  0x75, 0x3b, 0x73, 0x65, 0x71, 0x75, 0x65, 0x6e, 0x74, 0x69, 0x61, 0x6c,
  0x2f, 0x64, 0x65, 0x6e, 0x73, 0x65, 0x2f, 0x42, 0x69, 0x61, 0x73, 0x41,
  0x64, 0x64, 0x00, 0x00, 0x02, 0x00, 0x00, 0x00, 0xff, 0xff, 0xff, 0xff,
  0x10, 0x00, 0x00, 0x00, 0xec, 0xd1, 0xff, 0xff, 0x00, 0x00, 0x0a, 0x00,
  0x10, 0x00, 0x04, 0x00, 0x08, 0x00, 0x0c, 0x00, 0x0a, 0x00, 0x00, 0x00,
  0x02, 0x00, 0x00, 0x00, 0x10, 0x00, 0x00, 0x00, 0x04, 0x00, 0x00, 0x00,
  0x01, 0x00, 0x00, 0x00, 0x0e, 0x00, 0x00, 0x00, 0x02, 0x00, 0x00, 0x00,
  0x0d, 0x00, 0x00, 0x00, 0x05, 0x00, 0x00, 0x00, 0xa8, 0xfc, 0xff, 0xff,
  0x16, 0x00, 0x00, 0x00, 0x00, 0x00, 0x00, 0x16, 0x01, 0x00, 0x00, 0x00,
  0x8c, 0xd1, 0xff, 0xff, 0x14, 0x00, 0x00, 0x00, 0x0f, 0x00, 0x00, 0x00,
  0x18, 0x00, 0x00, 0x00, 0x40, 0x00, 0x00, 0x00, 0x30, 0x00, 0x00, 0x00,
  0x02, 0x00, 0x00, 0x00, 0x01, 0x00, 0x00, 0x00, 0x70, 0x00, 0x00, 0x00,
  0x1a, 0x00, 0x00, 0x00, 0x73, 0x65, 0x71, 0x75, 0x65, 0x6e, 0x74, 0x69,
  0x61, 0x6c, 0x2f, 0x66, 0x6c, 0x61, 0x74, 0x74, 0x65, 0x6e, 0x2f, 0x52,
  0x65, 0x73, 0x68, 0x61, 0x70, 0x65, 0x00, 0x00, 0x02, 0x00, 0x00, 0x00,
  0xff, 0xff, 0xff, 0xff, 0x70, 0x00, 0x00, 0x00, 0x70, 0xd1, 0xff, 0xff,
  0x3e, 0xfe, 0xff, 0xff, 0x00, 0x00, 0x00, 0x05, 0x01, 0x00, 0x00, 0x00,
  0x38, 0x00, 0x00, 0x00, 0x2c, 0x00, 0x00, 0x00, 0x14, 0x00, 0x00, 0x00,
  0x00, 0x00, 0x0e, 0x00, 0x14, 0x00, 0x00, 0x00, 0x10, 0x00, 0x0c, 0x00,
  0x08, 0x00, 0x04, 0x00, 0x0e, 0x00, 0x00, 0x00, 0x03, 0x00, 0x00, 0x00,
  0x01, 0x00, 0x00, 0x00, 0x03, 0x00, 0x00, 0x00, 0x01, 0x00, 0x00, 0x00,
  0x01, 0x00, 0x00, 0x00, 0x0d, 0x00, 0x00, 0x00, 0x01, 0x00, 0x00, 0x00,
  0x0c, 0x00, 0x00, 0x00, 0x2c, 0xd2, 0xff, 0xff, 0x14, 0x00, 0x00, 0x00,
  0x0e, 0x00, 0x00, 0x00, 0x20, 0x00, 0x00, 0x00, 0x58, 0x00, 0x00, 0x00,
  0x40, 0x00, 0x00, 0x00, 0x04, 0x00, 0x00, 0x00, 0x01, 0x00, 0x00, 0x00,
  0x07, 0x00, 0x00, 0x00, 0x01, 0x00, 0x00, 0x00, 0x10, 0x00, 0x00, 0x00,
  0x22, 0x00, 0x00, 0x00, 0x73, 0x65, 0x71, 0x75, 0x65, 0x6e, 0x74, 0x69,
  0x61, 0x6c, 0x2f, 0x6d, 0x61, 0x78, 0x5f, 0x70, 0x6f, 0x6f, 0x6c, 0x69,
  0x6e, 0x67, 0x32, 0x64, 0x5f, 0x31, 0x2f, 0x4d, 0x61, 0x78, 0x50, 0x6f,
  0x6f, 0x6c, 0x00, 0x00, 0x04, 0x00, 0x00, 0x00, 0xff, 0xff, 0xff, 0xff,
  0x07, 0x00, 0x00, 0x00, 0x01, 0x00, 0x00, 0x00, 0x10, 0x00, 0x00, 0x00,
  0x28, 0xd2, 0xff, 0xff, 0x1a, 0xfe, 0xff, 0xff, 0x00, 0x00, 0x00, 0x01,
  0x24, 0x00, 0x00, 0x00, 0x18, 0x00, 0x00, 0x00, 0x04, 0x00, 0x00, 0x00,
  0x0c, 0xfe, 0xff, 0xff, 0x01, 0x00, 0x00, 0x00, 0x01, 0x00, 0x00, 0x00,
  0x00, 0x00, 0x00, 0x01, 0x01, 0x00, 0x00, 0x00, 0x0c, 0x00, 0x00, 0x00,
  0x03, 0x00, 0x00, 0x00, 0x0b, 0x00, 0x00, 0x00, 0x09, 0x00, 0x00, 0x00,
  0x02, 0x00, 0x00, 0x00, 0xd4, 0xd2, 0xff, 0xff, 0x14, 0x00, 0x00, 0x00,
  0x0d, 0x00, 0x00, 0x00, 0x20, 0x00, 0x00, 0x00, 0xb8, 0x00, 0x00, 0x00,
  0xa0, 0x00, 0x00, 0x00, 0x04, 0x00, 0x00, 0x00, 0x01, 0x00, 0x00, 0x00,
  0x15, 0x00, 0x00, 0x00, 0x01, 0x00, 0x00, 0x00, 0x10, 0x00, 0x00, 0x00,
  0x83, 0x00, 0x00, 0x00, 0x73, 0x65, 0x71, 0x75, 0x65, 0x6e, 0x74, 0x69,
  0x61, 0x6c, 0x2f, 0x63, 0x6f, 0x6e, 0x76, 0x32, 0x64, 0x5f, 0x31, 0x2f,
  0x52, 0x65, 0x6c, 0x75, 0x3b, 0x73, 0x65, 0x71, 0x75, 0x65, 0x6e, 0x74,
  0x69, 0x61, 0x6c, 0x2f, 0x63, 0x6f, 0x6e, 0x76, 0x32, 0x64, 0x5f, 0x31,
  0x2f, 0x42, 0x69, 0x61, 0x73, 0x41, 0x64, 0x64, 0x3b, 0x73, 0x65, 0x71,
  0x75, 0x65, 0x6e, 0x74, 0x69, 0x61, 0x6c, 0x2f, 0x63, 0x6f, 0x6e, 0x76,
  0x32, 0x64, 0x5f, 0x31, 0x2f, 0x43, 0x6f, 0x6e, 0x76, 0x32, 0x44, 0x3b,
  0x73, 0x65, 0x71, 0x75, 0x65, 0x6e, 0x74, 0x69, 0x61, 0x6c, 0x2f, 0x63,
  0x6f, 0x6e, 0x76, 0x32, 0x64, 0x5f, 0x31, 0x2f, 0x42, 0x69, 0x61, 0x73,
  0x41, 0x64, 0x64, 0x2f, 0x52, 0x65, 0x61, 0x64, 0x56, 0x61, 0x72, 0x69,
  0x61, 0x62, 0x6c, 0x65, 0x4f, 0x70, 0x2f, 0x72, 0x65, 0x73, 0x6f, 0x75,
  0x72, 0x63, 0x65, 0x00, 0x04, 0x00, 0x00, 0x00, 0xff, 0xff, 0xff, 0xff,
  0x15, 0x00, 0x00, 0x00, 0x01, 0x00, 0x00, 0x00, 0x10, 0x00, 0x00, 0x00,
  0x40, 0xd4, 0xff, 0xff, 0x00, 0x00, 0x0e, 0x00, 0x1a, 0x00, 0x08, 0x00,
  0x0c, 0x00, 0x10, 0x00, 0x07, 0x00, 0x14, 0x00, 0x0e, 0x00, 0x00, 0x00,
  0x00, 0x00, 0x00, 0x05, 0x01, 0x00, 0x00, 0x00, 0x3c, 0x00, 0x00, 0x00,
  0x30, 0x00, 0x00, 0x00, 0x14, 0x00, 0x00, 0x00, 0x00, 0x00, 0x0e, 0x00,
  0x18, 0x00, 0x17, 0x00, 0x10, 0x00, 0x0c, 0x00, 0x08, 0x00, 0x04, 0x00,
  0x0e, 0x00, 0x00, 0x00, 0x03, 0x00, 0x00, 0x00, 0x03, 0x00, 0x00, 0x00,
  0x03, 0x00, 0x00, 0x00, 0x03, 0x00, 0x00, 0x00, 0x00, 0x00, 0x00, 0x01,
  0x01, 0x00, 0x00, 0x00, 0x0b, 0x00, 0x00, 0x00, 0x01, 0x00, 0x00, 0x00,
  0x0a, 0x00, 0x00, 0x00, 0x2c, 0xff, 0xff, 0xff, 0x11, 0x00, 0x00, 0x00,
  0x00, 0x00, 0x00, 0x11, 0x01, 0x00, 0x00, 0x00, 0x10, 0xd4, 0xff, 0xff,
  0x14, 0x00, 0x00, 0x00, 0x0c, 0x00, 0x00, 0x00, 0x20, 0x00, 0x00, 0x00,
  0x58, 0x00, 0x00, 0x00, 0x40, 0x00, 0x00, 0x00, 0x04, 0x00, 0x00, 0x00,
  0x01, 0x00, 0x00, 0x00, 0x15, 0x00, 0x00, 0x00, 0x01, 0x00, 0x00, 0x00,
  0x08, 0x00, 0x00, 0x00, 0x20, 0x00, 0x00, 0x00, 0x73, 0x65, 0x71, 0x75,
  0x65, 0x6e, 0x74, 0x69, 0x61, 0x6c, 0x2f, 0x6d, 0x61, 0x78, 0x5f, 0x70,
  0x6f, 0x6f, 0x6c, 0x69, 0x6e, 0x67, 0x32, 0x64, 0x2f, 0x4d, 0x61, 0x78,
  0x50, 0x6f, 0x6f, 0x6c, 0x00, 0x00, 0x00, 0x00, 0x04, 0x00, 0x00, 0x00,
  0xff, 0xff, 0xff, 0xff, 0x15, 0x00, 0x00, 0x00, 0x01, 0x00, 0x00, 0x00,
  0x08, 0x00, 0x00, 0x00, 0x1c, 0xd5, 0xff, 0xff, 0x00, 0x00, 0x0e, 0x00,
  0x14, 0x00, 0x00, 0x00, 0x08, 0x00, 0x0c, 0x00, 0x07, 0x00, 0x10, 0x00,
  0x0e, 0x00, 0x00, 0x00, 0x00, 0x00, 0x00, 0x01, 0x30, 0x00, 0x00, 0x00,
  0x24, 0x00, 0x00, 0x00, 0x10, 0x00, 0x00, 0x00, 0x0c, 0x00, 0x10, 0x00,
  0x00, 0x00, 0x04, 0x00, 0x08, 0x00, 0x0f, 0x00, 0x0c, 0x00, 0x00, 0x00,
  0x01, 0x00, 0x00, 0x00, 0x01, 0x00, 0x00, 0x00, 0x00, 0x00, 0x00, 0x01,
  0x01, 0x00, 0x00, 0x00, 0x0a, 0x00, 0x00, 0x00, 0x03, 0x00, 0x00, 0x00,
  0x00, 0x00, 0x00, 0x00, 0x08, 0x00, 0x00, 0x00, 0x01, 0x00, 0x00, 0x00,
  0x0c, 0x00, 0x10, 0x00, 0x0b, 0x00, 0x00, 0x00, 0x0c, 0x00, 0x04, 0x00,
  0x0c, 0x00, 0x00, 0x00, 0x03, 0x00, 0x00, 0x00, 0x00, 0x00, 0x00, 0x03,
  0x01, 0x00, 0x00, 0x00, 0xf0, 0xd4, 0xff, 0xff, 0x14, 0x00, 0x00, 0x00,
  0x0b, 0x00, 0x00, 0x00, 0x20, 0x00, 0x00, 0x00, 0xb0, 0x00, 0x00, 0x00,
  0x98, 0x00, 0x00, 0x00, 0x04, 0x00, 0x00, 0x00, 0x01, 0x00, 0x00, 0x00,
  0x40, 0x00, 0x00, 0x00, 0x03, 0x00, 0x00, 0x00, 0x08, 0x00, 0x00, 0x00,
  0x7b, 0x00, 0x00, 0x00, 0x73, 0x65, 0x71, 0x75, 0x65, 0x6e, 0x74, 0x69,
  0x61, 0x6c, 0x2f, 0x63, 0x6f, 0x6e, 0x76, 0x32, 0x64, 0x2f, 0x52, 0x65,
  0x6c, 0x75, 0x3b, 0x73, 0x65, 0x71, 0x75, 0x65, 0x6e, 0x74, 0x69, 0x61,
  0x6c, 0x2f, 0x63, 0x6f, 0x6e, 0x76, 0x32, 0x64, 0x2f, 0x42, 0x69, 0x61,
  0x73, 0x41, 0x64, 0x64, 0x3b, 0x73, 0x65, 0x71, 0x75, 0x65, 0x6e, 0x74,
  0x69, 0x61, 0x6c, 0x2f, 0x63, 0x6f, 0x6e, 0x76, 0x32, 0x64, 0x2f, 0x43,
  0x6f, 0x6e, 0x76, 0x32, 0x44, 0x3b, 0x73, 0x65, 0x71, 0x75, 0x65, 0x6e,
  0x74, 0x69, 0x61, 0x6c, 0x2f, 0x63, 0x6f, 0x6e, 0x76, 0x32, 0x64, 0x2f,
  0x42, 0x69, 0x61, 0x73, 0x41, 0x64, 0x64, 0x2f, 0x52, 0x65, 0x61, 0x64,
  0x56, 0x61, 0x72, 0x69, 0x61, 0x62, 0x6c, 0x65, 0x4f, 0x70, 0x2f, 0x72,
  0x65, 0x73, 0x6f, 0x75, 0x72, 0x63, 0x65, 0x00, 0x04, 0x00, 0x00, 0x00,
  0xff, 0xff, 0xff, 0xff, 0x40, 0x00, 0x00, 0x00, 0x03, 0x00, 0x00, 0x00,
  0x08, 0x00, 0x00, 0x00, 0x44, 0xd5, 0xff, 0xff, 0x4e, 0xd6, 0xff, 0xff,
  0x04, 0x00, 0x00, 0x00, 0x00, 0x08, 0x00, 0x00, 0x47, 0x26, 0xad, 0xbd,
  0xb1, 0x8b, 0x75, 0xbe, 0x50, 0x7f, 0x4d, 0xbd, 0x23, 0x19, 0x45, 0x3e,
  0x14, 0x89, 0x80, 0x3d, 0x91, 0xd0, 0x4a, 0xbe, 0x23, 0xd7, 0xaa, 0xbe,
  0xe5, 0xfe, 0xed, 0xbd, 0x0d, 0x69, 0x4e, 0xbd, 0xe1, 0xf3, 0x59, 0xbe,
  0x30, 0xde, 0x26, 0x3d, 0xed, 0x47, 0x0e, 0x3e, 0x75, 0x90, 0xbc, 0x3c,
  0xd0, 0xc6, 0x0c, 0xbe, 0x4b, 0x07, 0x07, 0xbe, 0x16, 0xc4, 0x3b, 0xbd,
  0xcd, 0x69, 0x5e, 0xbd, 0xb0, 0x48, 0x68, 0xbd, 0xf1, 0x8b, 0x88, 0xbd,
  0xc2, 0xe0, 0xf5, 0x3b, 0x1a, 0xee, 0x73, 0xbe, 0xf2, 0x2a, 0xd5, 0xbd,
  0x68, 0x21, 0x7c, 0x3d, 0x4b, 0x5e, 0x00, 0x3c, 0x08, 0x59, 0x15, 0x3e,
  0xf3, 0x37, 0xff, 0x3d, 0x9c, 0x45, 0x94, 0xbb, 0xb4, 0xba, 0xbe, 0xbd,
  0x10, 0xaf, 0x6a, 0xbd, 0x76, 0xe5, 0x15, 0x3e, 0xda, 0x51, 0x0e, 0x3f,
  0xe0, 0xeb, 0x30, 0x3d, 0x44, 0x6d, 0x43, 0xbe, 0x11, 0x23, 0x25, 0xbe,
  0x1e, 0x22, 0x89, 0x3e, 0x5b, 0x3a, 0x17, 0x3d, 0x0a, 0x25, 0x8f, 0x3d,
  0xd3, 0xfd, 0x39, 0xbe, 0x00, 0x67, 0x17, 0xbf, 0xf7, 0x03, 0x8e, 0xbd,
  0xa7, 0x1c, 0x46, 0xbe, 0xb9, 0x99, 0x30, 0xbf, 0xd9, 0xdd, 0x98, 0xbe,
  0x03, 0x49, 0x89, 0x3e, 0x71, 0x29, 0xff, 0x3e, 0x02, 0xf4, 0x68, 0xbe,
  0x21, 0xcc, 0x9d, 0xbd, 0x37, 0x45, 0x42, 0x3e, 0x9c, 0xc5, 0x78, 0xbd,
  0xd1, 0xa0, 0xa0, 0x3d, 0xca, 0xed, 0x8e, 0xbd, 0xb5, 0xaa, 0xdc, 0xbd,
  0x22, 0x3d, 0x29, 0xbe, 0xe5, 0x45, 0x98, 0xbb, 0x14, 0x79, 0x69, 0x3e,
  0x8a, 0x4b, 0x8e, 0xbe, 0xce, 0x64, 0xb8, 0x3c, 0x03, 0x27, 0x69, 0x3e,
  0x2a, 0x3a, 0x35, 0xbe, 0x7a, 0x82, 0xae, 0xbd, 0x0e, 0x1e, 0x11, 0xbe,
  0xe0, 0xd7, 0x90, 0x3d, 0x79, 0xd8, 0xd6, 0x3d, 0x21, 0xce, 0xb4, 0xbe,
  0x44, 0x68, 0x05, 0xbd, 0x0d, 0x6c, 0xe2, 0xbd, 0x82, 0xd8, 0x03, 0xbe,
  0x40, 0x94, 0x2a, 0xbe, 0xbe, 0x44, 0xb0, 0xbd, 0x62, 0x69, 0xa6, 0xbd,
  0xfd, 0xe7, 0x1f, 0xbe, 0x8b, 0x26, 0x11, 0xbe, 0xcd, 0x19, 0xcb, 0xbc,
  0xa4, 0x3f, 0x28, 0xbd, 0x6a, 0x83, 0x10, 0xbe, 0x2f, 0xfc, 0xbd, 0xbd,
  0x94, 0x99, 0x36, 0xbd, 0x2d, 0x8a, 0xec, 0xbc, 0x6d, 0xba, 0x87, 0xbd,
  0xf2, 0xe5, 0xe9, 0xbd, 0x8f, 0x7c, 0xa0, 0xbc, 0x7f, 0x57, 0xbc, 0xbd,
  0xe9, 0xa2, 0x38, 0x3b, 0x05, 0x37, 0x6a, 0x3e, 0x1f, 0x2c, 0x51, 0x3d,
  0x7b, 0x77, 0x85, 0xbc, 0x5d, 0x56, 0x1c, 0x3f, 0x69, 0xd4, 0xce, 0x3d,
  0xad, 0x10, 0xe6, 0xbc, 0x4b, 0xf5, 0xd7, 0xbc, 0x77, 0x8d, 0xa1, 0xbc,
  0x0b, 0xff, 0x53, 0x3e, 0x4b, 0x2f, 0xc5, 0x3c, 0x42, 0x02, 0xc1, 0x3d,
  0x28, 0xbc, 0x40, 0xbe, 0xb9, 0xcc, 0x2f, 0xbd, 0x30, 0x44, 0xb3, 0xbd,
  0x70, 0x2a, 0x97, 0xbe, 0x72, 0xfa, 0x67, 0x3a, 0x2f, 0x94, 0xa7, 0xbd,
  0x7f, 0x70, 0x2b, 0xbe, 0x1d, 0x4a, 0xbf, 0xbd, 0x71, 0x94, 0xc9, 0xbe,
  0x7b, 0xc1, 0x63, 0xbd, 0xda, 0x34, 0x67, 0xbe, 0x83, 0x39, 0xa0, 0xbe,
  0x73, 0x68, 0x02, 0x3f, 0xc1, 0x02, 0xf5, 0x3c, 0x0d, 0x90, 0x18, 0x3f,
  0x85, 0x10, 0x60, 0xbe, 0x7b, 0xdc, 0x43, 0xbd, 0xbe, 0xe6, 0x3a, 0xbe,
  0x26, 0xb3, 0xc1, 0xbd, 0x5a, 0x44, 0x7e, 0x3e, 0xc0, 0xba, 0xe7, 0xbc,
  0x9d, 0xc3, 0x1f, 0xbe, 0x84, 0xb5, 0x28, 0xbe, 0x96, 0xf4, 0x3e, 0xbd,
  0x91, 0x05, 0x10, 0x3e, 0xbd, 0x8c, 0x4b, 0xbe, 0x36, 0x1b, 0x34, 0xbd,
  0x0b, 0x11, 0x81, 0x3e, 0x92, 0x79, 0x9c, 0xbe, 0x36, 0x5f, 0xc0, 0xbe,
  0x99, 0x9d, 0x92, 0xbe, 0x0f, 0xb7, 0x41, 0x3d, 0x5f, 0xf0, 0x1f, 0x3e,
  0xd1, 0x2f, 0xe3, 0xbe, 0x29, 0xa0, 0x52, 0xbd, 0x9a, 0xa4, 0xc4, 0x3d,
  0x66, 0x77, 0xe9, 0xbd, 0xd9, 0x59, 0x19, 0xbe, 0x45, 0x69, 0x80, 0xbc,
  0x62, 0x47, 0xbe, 0x3d, 0xf0, 0x87, 0x94, 0xbd, 0x50, 0x17, 0x82, 0xbd,
  0x6e, 0x0f, 0x88, 0xbb, 0x61, 0xfa, 0x2b, 0x3c, 0x4a, 0xb4, 0x8f, 0x3e,
  0x2e, 0xf9, 0xc5, 0xba, 0x32, 0xf5, 0x79, 0x3d, 0x8a, 0xb6, 0x14, 0x3d,
  0x58, 0x3d, 0x0b, 0xbe, 0x26, 0xdd, 0xea, 0x3d, 0x6a, 0x0f, 0x41, 0x3c,
  0x7f, 0x42, 0x12, 0xbe, 0xb2, 0x99, 0x7a, 0x3d, 0x2e, 0xf2, 0x99, 0x3e,
  0x7b, 0x2a, 0x68, 0x3e, 0x88, 0x7b, 0xb8, 0x3d, 0xac, 0x85, 0x06, 0xbe,
  0xda, 0x74, 0x37, 0x3d, 0x45, 0x16, 0x06, 0x3e, 0x38, 0x4a, 0x89, 0x3e,
  0x17, 0xd3, 0x00, 0xbe, 0x1b, 0x06, 0x5d, 0xbe, 0x8c, 0xbb, 0x01, 0xbd,
  0xc0, 0x4e, 0x9f, 0x3d, 0x81, 0xc5, 0x10, 0x3e, 0x3d, 0xe4, 0x30, 0x3d,
  0xee, 0x67, 0x49, 0xbe, 0x26, 0xfb, 0x6d, 0xbd, 0x22, 0x2d, 0x58, 0x3f,
  0x2c, 0x21, 0x52, 0xbd, 0x35, 0xed, 0x73, 0xbd, 0x8a, 0x87, 0xa2, 0xbd,
  0x15, 0x24, 0x7c, 0x3c, 0x84, 0x12, 0x0c, 0xbe, 0x4d, 0xed, 0x5b, 0xbe,
  0x2f, 0x63, 0xbd, 0x3d, 0x24, 0xfc, 0x32, 0xbe, 0x91, 0x54, 0xaf, 0xbd,
  0xee, 0x22, 0x17, 0xbe, 0x5d, 0xa7, 0x76, 0xbd, 0x20, 0xc7, 0xe7, 0xbc,
  0x20, 0xca, 0xe7, 0xbd, 0xec, 0x00, 0xd4, 0xbd, 0xd5, 0x96, 0x42, 0x3d,
  0xd6, 0xe3, 0x14, 0xbd, 0x10, 0xf7, 0xfe, 0x3c, 0xe4, 0xe7, 0xee, 0x3b,
  0x53, 0xb4, 0x8f, 0xbc, 0x84, 0x46, 0xc8, 0xbd, 0x11, 0xef, 0x0a, 0xbe,
  0x6b, 0x03, 0x82, 0xbd, 0xcc, 0x71, 0x81, 0x3e, 0xca, 0x70, 0xb5, 0xbd,
  0x5c, 0x62, 0xd6, 0x3d, 0xb3, 0x5d, 0xd3, 0xbb, 0xcf, 0x4c, 0x52, 0x3d,
  0x8c, 0xe2, 0xbe, 0xbd, 0x78, 0x07, 0x04, 0xbe, 0xfa, 0x00, 0x57, 0xbd,
  0xe1, 0x4c, 0x3e, 0x3c, 0x8e, 0xd2, 0x66, 0xbe, 0x4f, 0x27, 0x00, 0x3e,
  0x80, 0x43, 0xbc, 0xbe, 0x3f, 0x97, 0xf3, 0x3e, 0xb9, 0x81, 0x3f, 0x3d,
  0x14, 0x1b, 0x13, 0xbe, 0xbe, 0x8c, 0xeb, 0xbd, 0x5f, 0xbb, 0xde, 0xbc,
  0x29, 0x36, 0x6e, 0xbd, 0xde, 0xf0, 0x52, 0x3e, 0xa5, 0xa7, 0xa9, 0xbd,
  0x27, 0xa8, 0x49, 0xbd, 0x35, 0x3d, 0x9a, 0x3e, 0x97, 0x74, 0x14, 0x3e,
  0x52, 0x42, 0x10, 0xbe, 0x87, 0xbb, 0xe1, 0xbd, 0xbc, 0x67, 0xea, 0xbd,
  0x89, 0xd8, 0x60, 0x3e, 0xd8, 0x02, 0x37, 0xbd, 0xae, 0x9d, 0xe0, 0xbd,
  0x72, 0x37, 0xee, 0xbd, 0x38, 0x22, 0x8a, 0xbe, 0xed, 0x87, 0x10, 0xbe,
  0xa4, 0x16, 0x0b, 0xbe, 0x2b, 0x2e, 0xd0, 0x3a, 0xfc, 0x7a, 0xf8, 0x3d,
  0x34, 0x11, 0x2f, 0x3c, 0x17, 0x2c, 0x95, 0xbd, 0x09, 0x3f, 0x70, 0xbe,
  0x2c, 0x77, 0xad, 0xbe, 0xf6, 0xc2, 0x4f, 0xbc, 0xcd, 0x6d, 0x6f, 0x3d,
  0xc3, 0x61, 0xb7, 0x3d, 0x0a, 0x70, 0x3e, 0x3e, 0x66, 0x5d, 0x02, 0xbd,
  0xcc, 0x9d, 0xf0, 0x3e, 0x4f, 0xbb, 0xf1, 0xbc, 0x71, 0x28, 0x00, 0xbd,
  0x78, 0x30, 0xd4, 0xbd, 0xb2, 0x13, 0xf2, 0xbd, 0x79, 0xa6, 0x1f, 0xbe,
  0x37, 0xb4, 0xf1, 0xbd, 0x7f, 0xc0, 0xe8, 0xbd, 0x61, 0x78, 0xf5, 0xbd,
  0x01, 0x5c, 0x34, 0xbe, 0xb7, 0x8a, 0xa7, 0xbe, 0xc2, 0xd6, 0x96, 0xbd,
  0x7c, 0x98, 0x0b, 0xbe, 0x7c, 0xc1, 0x77, 0xbe, 0xe1, 0xd6, 0xab, 0x3e,
  0xd8, 0x3e, 0xa9, 0xbc, 0xa5, 0x41, 0xf8, 0xbd, 0x3d, 0x9a, 0xaa, 0xbe,
  0xff, 0x1a, 0x80, 0xbe, 0x07, 0x5a, 0xa5, 0xbd, 0x80, 0xd4, 0x3e, 0xbe,
  0x11, 0x72, 0xb5, 0xbc, 0xc9, 0x12, 0xb4, 0x3e, 0x59, 0x25, 0x63, 0x3d,
  0x34, 0x2e, 0x43, 0xbe, 0x72, 0x4b, 0x53, 0xbe, 0xdf, 0x36, 0x17, 0xbe,
  0x97, 0x23, 0x26, 0xbd, 0xde, 0x4f, 0xf3, 0x3d, 0x42, 0x42, 0xcb, 0xbd,
  0x0e, 0xdc, 0xd9, 0x3d, 0xe5, 0x06, 0x0d, 0xbe, 0x7e, 0xc5, 0x18, 0x3f,
  0x22, 0xa3, 0x57, 0x3d, 0xea, 0x97, 0x0f, 0x3e, 0x39, 0x3a, 0xa3, 0xbd,
  0x99, 0x9d, 0x03, 0xbc, 0x47, 0x16, 0x8f, 0xbd, 0x8f, 0x81, 0xcb, 0x3e,
  0x94, 0xd1, 0x35, 0xbe, 0x4a, 0x06, 0xa7, 0xbd, 0xdc, 0x77, 0x27, 0xbe,
  0x82, 0x3f, 0x0f, 0xbe, 0xb8, 0xdf, 0xbd, 0xbd, 0x39, 0xef, 0xdd, 0xbd,
  0x3f, 0xdb, 0x12, 0xbe, 0xea, 0x45, 0xb7, 0x3e, 0x2d, 0xa4, 0xb5, 0x3c,
  0xdd, 0xf5, 0xc5, 0xbd, 0xb1, 0xb7, 0x56, 0xbe, 0x60, 0x73, 0x59, 0xbe,
  0x38, 0xad, 0xe1, 0xbd, 0x6a, 0x07, 0xfd, 0xbd, 0x31, 0x5f, 0xaf, 0xbd,
  0x35, 0x3d, 0x2c, 0x3e, 0x40, 0x26, 0x9b, 0x3d, 0x2b, 0x68, 0x07, 0xbe,
  0xf2, 0x80, 0x86, 0xbe, 0x63, 0x0f, 0x41, 0xbd, 0x6e, 0x75, 0x32, 0x3d,
  0x78, 0xde, 0x31, 0x3c, 0xb0, 0xd6, 0x73, 0xbe, 0xbc, 0x74, 0xda, 0xbe,
  0xfd, 0xaa, 0xc2, 0xbe, 0x48, 0xcc, 0x44, 0x3e, 0x65, 0xd1, 0x12, 0xbd,
  0x29, 0x15, 0xf1, 0xbe, 0xb2, 0xb2, 0xd3, 0xbd, 0xe5, 0x2a, 0xb2, 0xbc,
  0x7d, 0x79, 0xc9, 0x3d, 0x70, 0xcb, 0x97, 0xbd, 0x42, 0x4b, 0x67, 0xbe,
  0x17, 0x80, 0x1a, 0x3e, 0x12, 0x93, 0x27, 0xbe, 0xc5, 0xb8, 0x09, 0xbe,
  0xe3, 0xeb, 0x00, 0x3e, 0x65, 0x72, 0xe3, 0xbd, 0x3e, 0xb0, 0x3f, 0x3e,
  0x3a, 0xde, 0xc6, 0xba, 0x3b, 0xa7, 0x1b, 0x3e, 0x79, 0x24, 0xf9, 0xbe,
  0x80, 0xe0, 0xa5, 0xbd, 0xa8, 0xdb, 0x03, 0xbd, 0x55, 0x87, 0x73, 0xbe,
  0x5d, 0xe6, 0x7b, 0xbe, 0x02, 0x4b, 0x19, 0xbe, 0xd4, 0x62, 0xc4, 0xbd,
  0x22, 0xd6, 0x87, 0xbe, 0x4e, 0x07, 0x98, 0x3b, 0x1d, 0x31, 0x5a, 0x3d,
  0xa5, 0x3d, 0xa7, 0xbe, 0x2d, 0xc7, 0xb9, 0xbd, 0x08, 0xf8, 0x1d, 0xbe,
  0xad, 0x8e, 0xce, 0xbd, 0x4d, 0x10, 0x92, 0xbe, 0x3b, 0x6f, 0xd0, 0xbd,
  0x25, 0x81, 0x13, 0xbe, 0x10, 0xb2, 0xc3, 0xbe, 0x52, 0xc8, 0x32, 0xbe,
  0xff, 0x87, 0x5b, 0xbc, 0x43, 0xf2, 0xac, 0xbe, 0x92, 0x2f, 0xfa, 0x3d,
  0xb9, 0xe2, 0xeb, 0x3e, 0x00, 0x51, 0x38, 0x3a, 0x83, 0xc2, 0x1d, 0xbd,
  0xa5, 0xfc, 0x4d, 0xbe, 0x5b, 0x4b, 0x79, 0x3d, 0x1c, 0xee, 0x30, 0xbe,
  0xfb, 0xa4, 0x9e, 0xbb, 0x00, 0x91, 0x38, 0xbe, 0x03, 0x85, 0xd7, 0xbd,
  0xb1, 0xa7, 0x0b, 0x3e, 0x71, 0xdc, 0x0e, 0xbe, 0x65, 0x27, 0xa6, 0xbc,
  0x09, 0x11, 0x7d, 0xbd, 0xb1, 0xb3, 0x6c, 0xbd, 0xc9, 0x7f, 0x7a, 0x3e,
  0x2b, 0xb1, 0x2d, 0xbe, 0x2c, 0x61, 0xb9, 0x3d, 0x7d, 0x00, 0x1f, 0x3e,
  0x37, 0x7a, 0x42, 0x3d, 0xf7, 0xdd, 0xae, 0xbd, 0x4b, 0x6c, 0x5a, 0xbe,
  0xde, 0xfb, 0x6c, 0xbe, 0xb0, 0xeb, 0x74, 0x3d, 0x83, 0xec, 0x73, 0xbe,
  0x54, 0xc8, 0x5d, 0xbe, 0xe1, 0x79, 0x46, 0xbe, 0xf5, 0x95, 0xa1, 0x3d,
  0x32, 0x54, 0x98, 0x3b, 0xd1, 0xb7, 0x3f, 0x3d, 0x37, 0x59, 0x65, 0xbe,
  0xd3, 0x76, 0xbc, 0xbc, 0x53, 0x1a, 0x20, 0xbe, 0xbe, 0x3e, 0x6e, 0xbe,
  0x8e, 0x3e, 0xb3, 0xbc, 0x2f, 0x64, 0x82, 0xbd, 0xde, 0x73, 0xa2, 0xbd,
  0xc8, 0xa5, 0xda, 0x3d, 0x22, 0x7a, 0x8f, 0xbe, 0x90, 0xd3, 0xb7, 0xbd,
  0x7d, 0xfa, 0x2a, 0x3e, 0xb2, 0x59, 0xfe, 0x3a, 0x5d, 0x57, 0x9d, 0xbb,
  0x1f, 0xb5, 0x1a, 0xbd, 0x5c, 0x7f, 0x3d, 0xbc, 0x83, 0x3a, 0xe4, 0x3d,
  0xad, 0x6c, 0xa1, 0xbe, 0x17, 0xe4, 0xb8, 0x3d, 0x0b, 0xaa, 0x1c, 0xbe,
  0xe9, 0x12, 0x94, 0xbe, 0xc2, 0x81, 0x56, 0x3d, 0x68, 0x6f, 0x1d, 0xbe,
  0x37, 0x4e, 0xba, 0xbd, 0x5e, 0xaa, 0x74, 0x3e, 0xd0, 0x6b, 0x93, 0xbd,
  0x0b, 0xe6, 0x2d, 0x3e, 0xd3, 0x83, 0xa7, 0xbd, 0xa1, 0x46, 0xd4, 0x3c,
  0x6c, 0x58, 0x1d, 0x3f, 0xbd, 0x53, 0x02, 0xbe, 0x92, 0x7f, 0x56, 0xbe,
  0x67, 0xa1, 0x66, 0xbd, 0x0d, 0x89, 0xd4, 0xbd, 0x9d, 0x21, 0x17, 0xbe,
  0x5c, 0xd9, 0x80, 0x3e, 0x15, 0x5c, 0xed, 0x3d, 0x3c, 0x12, 0x10, 0xbe,
  0xf2, 0xe0, 0xa1, 0xbd, 0x90, 0x76, 0x9f, 0xbe, 0xcf, 0x52, 0x19, 0xbd,
  0x3e, 0x64, 0xc6, 0xbd, 0x0a, 0x6f, 0x1a, 0xbe, 0x56, 0x12, 0x31, 0xbd,
  0x8f, 0x0d, 0x18, 0xbe, 0xc6, 0x10, 0xbf, 0xbc, 0xa6, 0xa4, 0xbe, 0xbd,
  0x72, 0xd9, 0x04, 0x3d, 0xb0, 0x0b, 0xd8, 0xbd, 0xf6, 0x5e, 0xc1, 0xbd,
  0x59, 0x1c, 0xca, 0xbb, 0xa0, 0x2e, 0x50, 0x3c, 0xd9, 0x03, 0x91, 0xbd,
  0x2c, 0x64, 0xa0, 0xbd, 0x60, 0xb0, 0xcd, 0x3c, 0xc3, 0x18, 0x9a, 0x3e,
  0x49, 0x0f, 0xd5, 0xbd, 0x37, 0x26, 0xf7, 0xbd, 0x38, 0xea, 0xd9, 0xbd,
  0xa2, 0xdc, 0xe8, 0xbd, 0xc2, 0xca, 0x8c, 0x3e, 0x99, 0x9c, 0x5a, 0xbe,
  0xf2, 0xf5, 0x0d, 0xbe, 0x84, 0x03, 0x91, 0xbe, 0x53, 0xb6, 0x18, 0xbd,
  0x41, 0x29, 0xe9, 0xbd, 0xfe, 0x13, 0x9a, 0xbd, 0x12, 0xb3, 0x28, 0xbe,
  0x36, 0xd7, 0x26, 0xbf, 0xf6, 0xc4, 0x31, 0xbe, 0x6e, 0x97, 0xce, 0xbd,
  0x29, 0x4d, 0x59, 0xbe, 0xc2, 0xab, 0x9d, 0xbd, 0x70, 0xb8, 0xb4, 0xbd,
  0x04, 0x86, 0xe8, 0xbd, 0x9a, 0x7d, 0x73, 0x3d, 0x61, 0x61, 0xd6, 0x3d,
  0x17, 0xec, 0xbd, 0x3d, 0x81, 0x1e, 0xc9, 0xbd, 0x0f, 0x3f, 0x42, 0xbe,
  0x85, 0xb5, 0x3e, 0x3d, 0x9f, 0x04, 0xa8, 0x3b, 0xf7, 0x4d, 0xb0, 0xbd,
  0x5b, 0x94, 0x31, 0x3e, 0xfe, 0x7c, 0xf4, 0x3e, 0x7f, 0x52, 0xbc, 0x3e,
  0x30, 0xe3, 0xa5, 0xbd, 0xdf, 0x96, 0xac, 0xbe, 0x97, 0x12, 0x77, 0x3e,
  0x7b, 0x94, 0xe7, 0xbd, 0x44, 0x6c, 0x69, 0xbe, 0x6c, 0x81, 0x8c, 0xbe,
  0xcf, 0x1b, 0x76, 0xbe, 0xc0, 0xb4, 0x8f, 0xbe, 0x00, 0x5d, 0x1e, 0xbe,
  0x50, 0x03, 0x8b, 0xbe, 0x08, 0x34, 0xbb, 0xbe, 0xa6, 0x58, 0xac, 0xbc,
  0x10, 0xcc, 0xd0, 0x3d, 0xe2, 0x1f, 0xfe, 0xbd, 0x69, 0x4b, 0xa4, 0x3e,
  0x2d, 0x11, 0x60, 0xbe, 0xd3, 0xf8, 0x38, 0x3e, 0xf1, 0xc8, 0xd0, 0x3d,
  0x44, 0xb2, 0xe7, 0x3d, 0x7a, 0x45, 0xc1, 0x3a, 0x03, 0xb6, 0x62, 0xbe,
  0xa3, 0x49, 0x4f, 0x3d, 0x73, 0xb3, 0x3e, 0xbf, 0x1b, 0x2b, 0xb9, 0x3d,
  0xcc, 0xfd, 0x7b, 0xbd, 0x57, 0x5a, 0x40, 0xbe, 0xc4, 0x87, 0xd7, 0xbd,
  0xe5, 0x95, 0xa6, 0x3d, 0x34, 0x25, 0xc3, 0xbd, 0xb5, 0xc6, 0xcc, 0x3d,
  0x5a, 0x82, 0x00, 0xbe, 0xa3, 0x1f, 0xa7, 0x3d, 0xb3, 0xe4, 0xfb, 0x3d,
  0x36, 0x3f, 0x29, 0x3c, 0x30, 0x43, 0x94, 0xbc, 0xe9, 0xab, 0xd0, 0xbe,
  0x29, 0x82, 0x9a, 0x3d, 0xa2, 0x48, 0x8a, 0xbd, 0xa0, 0x19, 0x97, 0x3e,
  0xbc, 0x4e, 0x1c, 0x3e, 0x2c, 0x54, 0xa6, 0xbd, 0x78, 0xbc, 0xfc, 0x3d,
  0xc9, 0x84, 0x29, 0xbd, 0x99, 0x24, 0xec, 0xbe, 0x17, 0x50, 0x59, 0xbe,
  0xf6, 0x24, 0x83, 0x3e, 0x28, 0x0e, 0x92, 0x3e, 0x35, 0x3f, 0x7c, 0x3e,
  0x87, 0xd5, 0x19, 0xbe, 0xd5, 0x64, 0x02, 0x3e, 0x00, 0xaa, 0x2e, 0x3e,
  0xbe, 0xe5, 0xc6, 0xbe, 0xe9, 0x2e, 0x43, 0x3e, 0x2d, 0x63, 0xf0, 0xbd,
  0x0f, 0xfc, 0x84, 0x3d, 0x62, 0xd0, 0x2c, 0x3c, 0xda, 0xcc, 0x75, 0xbd,
  0xef, 0x2b, 0xc1, 0x3e, 0x58, 0x1a, 0x25, 0xbd, 0x26, 0xac, 0xbb, 0xbe,
  0xf3, 0x96, 0xa9, 0x3e, 0xf5, 0x2d, 0xf4, 0xbc, 0xed, 0xfc, 0xa3, 0x3e,
  0x5e, 0x40, 0x23, 0x3e, 0xd6, 0xaf, 0x1f, 0xbd, 0x42, 0x4a, 0x17, 0xbe,
  0xd3, 0xe8, 0xd2, 0xbd, 0x26, 0xde, 0xff, 0xff, 0x10, 0x00, 0x00, 0x00,
  0x0a, 0x00, 0x00, 0x00, 0x1c, 0x00, 0x00, 0x00, 0x38, 0x00, 0x00, 0x00,
  0x04, 0x00, 0x00, 0x00, 0x10, 0x00, 0x00, 0x00, 0x04, 0x00, 0x00, 0x00,
  0x01, 0x00, 0x00, 0x00, 0x08, 0x00, 0x00, 0x00, 0x1a, 0x00, 0x00, 0x00,
  0x73, 0x65, 0x71, 0x75, 0x65, 0x6e, 0x74, 0x69, 0x61, 0x6c, 0x2f, 0x63,
  0x6f, 0x6e, 0x76, 0x32, 0x64, 0x5f, 0x31, 0x2f, 0x43, 0x6f, 0x6e, 0x76,
  0x32, 0x44, 0x00, 0x00, 0x9c, 0xdd, 0xff, 0xff, 0xa6, 0xde, 0xff, 0xff,
  0x04, 0x00, 0x00, 0x00, 0x80, 0x01, 0x00, 0x00, 0xc0, 0x11, 0xea, 0xbd,
  0xd7, 0xa0, 0x2c, 0xbd, 0x22, 0x56, 0x43, 0x3e, 0xa8, 0x63, 0xc0, 0xbd,
  0x7d, 0x1f, 0x96, 0x3d, 0x82, 0x9a, 0x81, 0x3d, 0xbe, 0x15, 0x7c, 0xbd,
  0x17, 0x0b, 0x84, 0x3d, 0x22, 0x2f, 0x3a, 0xbd, 0x23, 0xf9, 0x9c, 0xbd,
  0x43, 0xad, 0x0f, 0x3e, 0xd1, 0x9e, 0xe4, 0xbc, 0x0e, 0x95, 0x34, 0xbd,
  0x44, 0xc2, 0xc7, 0x3c, 0x51, 0xcb, 0x89, 0x3e, 0x6f, 0xdb, 0xd2, 0xbd,
  0x87, 0x72, 0x26, 0xbe, 0x6c, 0xb9, 0x58, 0xbe, 0x3c, 0x2f, 0xeb, 0x3d,
  0x72, 0x0b, 0x15, 0xbe, 0x2a, 0x60, 0x60, 0xbe, 0xf5, 0x5a, 0x00, 0xbe,
  0xe8, 0x6b, 0xa0, 0x3d, 0x27, 0x14, 0xe4, 0xbb, 0x38, 0x89, 0xae, 0x3d,
  0x42, 0x87, 0xcb, 0xbc, 0xa9, 0x21, 0xdd, 0xbd, 0x3b, 0xef, 0xe4, 0xbd,
  0xd8, 0x53, 0xa4, 0xbd, 0x89, 0x68, 0x0d, 0xbf, 0xed, 0xd2, 0xaa, 0x3b,
  0x61, 0x8e, 0x74, 0x3e, 0xa9, 0xc4, 0x07, 0x3e, 0xca, 0xd3, 0x6a, 0x3e,
  0x47, 0xf9, 0xe1, 0x3d, 0xb9, 0x6e, 0x09, 0x3f, 0xf7, 0x48, 0xe6, 0xbd,
  0xf2, 0xfa, 0x07, 0xbf, 0x56, 0x8b, 0x93, 0x3d, 0xc0, 0x56, 0xcf, 0x3d,
  0x07, 0x35, 0x94, 0x3d, 0xc9, 0x23, 0x99, 0x3d, 0x2b, 0xc1, 0x5c, 0xbd,
  0x55, 0x4c, 0x8f, 0x3e, 0xfd, 0xe5, 0x27, 0xbd, 0xb5, 0xfd, 0x3a, 0x3d,
  0x04, 0x96, 0x29, 0x3e, 0x68, 0x0e, 0xab, 0xbd, 0x9e, 0x31, 0x82, 0x3b,
  0xff, 0x4c, 0x17, 0xbc, 0x14, 0x24, 0xae, 0xbd, 0x11, 0xff, 0x18, 0xbe,
  0xb8, 0x22, 0xe2, 0xbe, 0x46, 0xbf, 0xa6, 0xbd, 0xf4, 0x88, 0x27, 0x3e,
  0x7a, 0x01, 0x67, 0x3e, 0x78, 0xa0, 0x3b, 0xbe, 0xb4, 0xa2, 0x66, 0x3e,
  0x46, 0x50, 0x94, 0x3e, 0xf9, 0x0d, 0x7f, 0x3e, 0xb4, 0x2f, 0x03, 0x3e,
  0x19, 0xb3, 0x9e, 0xbe, 0x8f, 0x6d, 0xa3, 0x3d, 0x90, 0x06, 0x91, 0x3c,
  0x86, 0x78, 0x23, 0xbe, 0xf1, 0x43, 0x54, 0x3e, 0xa9, 0x6a, 0x67, 0xbe,
  0x04, 0x32, 0x27, 0x3c, 0x66, 0xfc, 0x5a, 0x3d, 0xcf, 0xf9, 0xbb, 0xbd,
  0x87, 0xd7, 0x6c, 0x3e, 0xac, 0x88, 0x8c, 0xbd, 0xdf, 0x27, 0x4d, 0x3e,
  0x44, 0x18, 0xec, 0x3e, 0x2f, 0xd9, 0x0e, 0xbe, 0x5a, 0x76, 0x7d, 0xbc,
  0xb6, 0x3f, 0x85, 0xbc, 0x64, 0x98, 0xb9, 0x3c, 0xa5, 0xbf, 0xde, 0xbd,
  0x0e, 0xad, 0xa7, 0xbe, 0xa5, 0x2c, 0xb3, 0xbc, 0x38, 0x1b, 0xd0, 0xbd,
  0xd7, 0x37, 0x45, 0xbe, 0xcc, 0x68, 0x05, 0xba, 0x5c, 0x85, 0x81, 0xbd,
  0x32, 0xa5, 0x50, 0x3e, 0x74, 0xa8, 0x93, 0xbe, 0xa8, 0x9d, 0x45, 0xbd,
  0xdf, 0x30, 0x85, 0x3a, 0x04, 0xe8, 0xb2, 0x3d, 0x0a, 0x60, 0x6c, 0x3d,
  0xf8, 0xf7, 0x24, 0xbe, 0x1e, 0x91, 0xaa, 0x3d, 0xea, 0xb0, 0xe5, 0x3d,
  0x62, 0xa1, 0x39, 0x3e, 0x30, 0x55, 0xf0, 0xba, 0xfe, 0xdf, 0xff, 0xff,
  0x10, 0x00, 0x00, 0x00, 0x09, 0x00, 0x00, 0x00, 0x1c, 0x00, 0x00, 0x00,
  0x38, 0x00, 0x00, 0x00, 0x04, 0x00, 0x00, 0x00, 0x08, 0x00, 0x00, 0x00,
  0x04, 0x00, 0x00, 0x00, 0x03, 0x00, 0x00, 0x00, 0x01, 0x00, 0x00, 0x00,
  0x18, 0x00, 0x00, 0x00, 0x73, 0x65, 0x71, 0x75, 0x65, 0x6e, 0x74, 0x69,
  0x61, 0x6c, 0x2f, 0x63, 0x6f, 0x6e, 0x76, 0x32, 0x64, 0x2f, 0x43, 0x6f,
  0x6e, 0x76, 0x32, 0x44, 0x00, 0x00, 0x00, 0x00, 0x74, 0xdf, 0xff, 0xff,
  0x7e, 0xe0, 0xff, 0xff, 0x04, 0x00, 0x00, 0x00, 0xc0, 0x00, 0x00, 0x00,
  0xdf, 0x0f, 0x3f, 0xbd, 0xf7, 0x71, 0xa4, 0xbe, 0xcc, 0xf2, 0x5b, 0xbe,
  0xe0, 0xda, 0xb1, 0x3d, 0x5c, 0x6c, 0x34, 0x3e, 0x18, 0xf1, 0x91, 0x3e,
  0x5d, 0xe9, 0x91, 0xbc, 0x74, 0xf3, 0x34, 0x3f, 0x69, 0xb8, 0x72, 0xbc,
  0xcf, 0xb3, 0x55, 0xbf, 0x28, 0xd6, 0x3b, 0xbe, 0x05, 0x7b, 0x12, 0x3f,
  0xd1, 0xf5, 0x87, 0x3e, 0xbf, 0xe8, 0x83, 0xbe, 0xc3, 0xbe, 0x92, 0xbc,
  0x50, 0x27, 0x7f, 0xbe, 0xfb, 0x78, 0x89, 0x3c, 0x2d, 0x96, 0x68, 0xbe,
  0xfe, 0x2d, 0x4b, 0xbe, 0xe0, 0xdd, 0x9c, 0x3d, 0x5a, 0x59, 0x07, 0x3e,
  0x0d, 0x3e, 0x79, 0xbe, 0x06, 0x6c, 0x95, 0xb8, 0xc7, 0x55, 0x3b, 0xbe,
  0x33, 0xf9, 0xeb, 0x3d, 0xfc, 0xca, 0xce, 0x3d, 0xa2, 0x96, 0x9b, 0xbc,
  0xfb, 0xd3, 0xc2, 0x3d, 0x60, 0x94, 0xa9, 0x3e, 0x7e, 0xab, 0x4d, 0xbe,
  0x7c, 0x2c, 0x0e, 0x3d, 0xfb, 0x00, 0x7f, 0xbe, 0x35, 0xff, 0x9b, 0x3d,
  0x6a, 0xcd, 0x9a, 0xbe, 0xdf, 0x6f, 0xb6, 0xbe, 0xa1, 0xa0, 0xee, 0x3c,
  0xd8, 0x38, 0xd7, 0x3d, 0x67, 0x12, 0xd0, 0xbe, 0x3e, 0xec, 0x2f, 0xbe,
  0x27, 0x9d, 0x04, 0xbf, 0x01, 0xd2, 0x91, 0x3d, 0xd6, 0xbb, 0xb6, 0x3d,
  0xf4, 0x8b, 0x23, 0xbe, 0xbb, 0x2d, 0xa9, 0xbe, 0x11, 0x52, 0x8d, 0x3e,
  0x3a, 0xd0, 0x0f, 0xbe, 0xba, 0xa7, 0x3c, 0xbd, 0x6d, 0x1d, 0x9c, 0xbe,
  0x16, 0xe1, 0xff, 0xff, 0x10, 0x00, 0x00, 0x00, 0x08, 0x00, 0x00, 0x00,
  0x14, 0x00, 0x00, 0x00, 0x30, 0x00, 0x00, 0x00, 0x02, 0x00, 0x00, 0x00,
  0x03, 0x00, 0x00, 0x00, 0x10, 0x00, 0x00, 0x00, 0x19, 0x00, 0x00, 0x00,
  0x73, 0x65, 0x71, 0x75, 0x65, 0x6e, 0x74, 0x69, 0x61, 0x6c, 0x2f, 0x64,
  0x65, 0x6e, 0x73, 0x65, 0x5f, 0x31, 0x2f, 0x4d, 0x61, 0x74, 0x4d, 0x75,
  0x6c, 0x00, 0x00, 0x00, 0x84, 0xe0, 0xff, 0xff, 0x8e, 0xe1, 0xff, 0xff,
  0x04, 0x00, 0x00, 0x00, 0x00, 0x1c, 0x00, 0x00, 0x69, 0xcd, 0x6c, 0xbc,
  0x71, 0xc3, 0x2d, 0xbe, 0x6e, 0x20, 0x99, 0xbe, 0xb2, 0x4f, 0x2e, 0xbe,
  0xac, 0x64, 0x88, 0x3c, 0xaa, 0x71, 0x8d, 0xbe, 0x46, 0x09, 0xd9, 0xbe,
  0x9c, 0xb8, 0x8d, 0xbe, 0x2f, 0x76, 0xc5, 0xbe, 0xa3, 0x1a, 0x1e, 0x3f,
  0xe8, 0xfa, 0xc3, 0x3d, 0x3f, 0xbe, 0xf2, 0x3e, 0xc9, 0x09, 0x53, 0xbe,
  0xee, 0x44, 0x89, 0x3e, 0x13, 0xf1, 0x60, 0x3d, 0x30, 0x04, 0x5b, 0x3c,
  0x4c, 0x0b, 0xad, 0xbe, 0xe0, 0x5a, 0x0c, 0x3e, 0x3a, 0xb7, 0x15, 0x3e,
  0x5f, 0x6d, 0xef, 0x3d, 0x51, 0xff, 0x81, 0x3d, 0x77, 0x44, 0xec, 0x3c,
  0x93, 0x5c, 0x0f, 0xbe, 0xd2, 0x7d, 0xea, 0xbe, 0xa0, 0x51, 0x0a, 0xbf,
  0x6b, 0x01, 0xf4, 0x3e, 0x6b, 0xe1, 0xa4, 0xb9, 0xe7, 0x59, 0x61, 0x3f,
  0xdb, 0x1a, 0x1b, 0xbe, 0x01, 0xa8, 0x1b, 0x3c, 0x8e, 0xde, 0xf5, 0x3e,
  0x5f, 0x26, 0x38, 0x3e, 0xbb, 0xf8, 0xc5, 0x3c, 0x2e, 0x00, 0xcb, 0x3d,
  0x95, 0xd9, 0xce, 0xbd, 0x2a, 0x5b, 0xf6, 0xbc, 0x53, 0xd7, 0x1a, 0x3d,
  0x01, 0xda, 0xe2, 0x3b, 0xf2, 0xf1, 0x8b, 0x3c, 0x58, 0x56, 0xb2, 0xbe,
  0x9d, 0x7c, 0x47, 0xbe, 0x9a, 0xab, 0xf7, 0x3e, 0x0e, 0x18, 0xda, 0xbd,
  0x4b, 0x87, 0x1e, 0x3f, 0x71, 0x45, 0x88, 0x3d, 0x1f, 0x57, 0x71, 0xbd,
  0x4b, 0x49, 0xf7, 0x3d, 0xeb, 0x76, 0xd1, 0x3e, 0x25, 0x95, 0x94, 0xbd,
  0x65, 0x86, 0xbc, 0x3d, 0x1e, 0xd8, 0x10, 0x3d, 0x62, 0xb8, 0xe5, 0x3d,
  0x2b, 0x0f, 0x00, 0x3d, 0xb6, 0x77, 0x09, 0x3d, 0x65, 0xe7, 0x3c, 0xbe,
  0xca, 0x70, 0x2e, 0xbe, 0x82, 0x8f, 0x5b, 0xbd, 0xe4, 0x4f, 0xa5, 0x3e,
  0x8c, 0x78, 0x2e, 0xbe, 0xd9, 0x68, 0x3a, 0x3f, 0xa1, 0x03, 0xb2, 0xbd,
  0xfd, 0x70, 0x16, 0xbc, 0x3e, 0x58, 0x3c, 0x3e, 0x43, 0xae, 0x93, 0x3e,
  0x29, 0xb0, 0xe2, 0xbd, 0x7f, 0x56, 0x56, 0xbe, 0x16, 0xb2, 0x00, 0xbe,
  0x03, 0xfd, 0x4e, 0x3d, 0x25, 0x7a, 0xc8, 0x3c, 0x0c, 0x97, 0xa4, 0xbd,
  0x7d, 0x95, 0x17, 0xbe, 0xa5, 0x4a, 0x80, 0xbe, 0x50, 0x9f, 0x9b, 0xbe,
  0x46, 0x93, 0xcc, 0x3e, 0xc8, 0x6d, 0xbe, 0xbd, 0x87, 0x3d, 0xd4, 0x3e,
  0xf3, 0xed, 0xca, 0x3b, 0x68, 0x3f, 0x4a, 0xbd, 0x4f, 0x9e, 0x89, 0x3d,
  0x61, 0x89, 0x82, 0x3e, 0x78, 0xce, 0x15, 0xbf, 0xf1, 0xd4, 0xe3, 0x3c,
  0xcf, 0x38, 0xdb, 0xbe, 0x65, 0x6b, 0xf4, 0x3a, 0x0b, 0x4e, 0x68, 0x3b,
  0x99, 0xd8, 0x1d, 0x3e, 0x87, 0x98, 0xf1, 0xbe, 0x11, 0x81, 0x96, 0xbe,
  0xa8, 0x6b, 0xdc, 0xbe, 0xab, 0xf5, 0xca, 0x3e, 0x1d, 0x9f, 0x90, 0xbe,
  0xe6, 0x18, 0x11, 0x3f, 0x83, 0x6c, 0xaa, 0x3d, 0x48, 0x8f, 0x1c, 0xbe,
  0xde, 0xd7, 0x68, 0x3e, 0x55, 0x4c, 0x48, 0x3e, 0xce, 0x70, 0x3f, 0xbe,
  0xf8, 0xce, 0x6b, 0xbc, 0x48, 0xfc, 0xa8, 0xbe, 0x4f, 0x5e, 0x7b, 0xbd,
  0x4f, 0xc8, 0x82, 0xba, 0x5b, 0xd3, 0x14, 0x3d, 0xbc, 0xe8, 0xd4, 0xbd,
  0xf3, 0xf9, 0xa2, 0xbd, 0x9e, 0x96, 0xa7, 0xbb, 0xca, 0x68, 0xd4, 0x3d,
  0x0f, 0x7e, 0xfa, 0xbd, 0x72, 0x3d, 0x15, 0x3f, 0x28, 0x21, 0x80, 0x3c,
  0xf8, 0x7e, 0xd8, 0xbe, 0x0f, 0xa8, 0x5d, 0x3e, 0xcd, 0xa6, 0x6a, 0x3d,
  0x73, 0xdc, 0x33, 0xbe, 0x55, 0x32, 0xcc, 0x3d, 0x92, 0x68, 0xb9, 0xbe,
  0x60, 0xb3, 0xa0, 0xbc, 0xfe, 0x2b, 0x78, 0xbe, 0x61, 0xed, 0xf1, 0xbe,
  0xf5, 0x47, 0xf6, 0xbe, 0xeb, 0x2c, 0x66, 0x3d, 0x18, 0xc0, 0xf8, 0xbd,
  0x0d, 0x0d, 0x9a, 0xbe, 0x1f, 0x95, 0xa0, 0x3d, 0x54, 0xab, 0xdc, 0xbe,
  0xc6, 0x83, 0x3a, 0xbd, 0xfb, 0xfa, 0x61, 0x3b, 0x15, 0xc4, 0x2b, 0xbe,
  0x49, 0xe3, 0x0d, 0xbd, 0xe1, 0x87, 0x79, 0xbe, 0x59, 0x04, 0xb6, 0x3c,
  0x0c, 0x2b, 0x79, 0xbe, 0xde, 0x82, 0xac, 0x3d, 0xc5, 0x45, 0xbf, 0xbe,
  0xa4, 0x89, 0x77, 0xbe, 0xe9, 0x7c, 0x6d, 0xbe, 0x37, 0x71, 0x95, 0xbd,
  0x7c, 0xeb, 0x2e, 0xbe, 0xa6, 0xdb, 0xc6, 0x3d, 0x93, 0x81, 0x90, 0xbe,
  0x54, 0xd0, 0x5b, 0xbe, 0x63, 0xf8, 0x43, 0xbe, 0x89, 0x07, 0x23, 0xbd,
  0xd1, 0x7d, 0xcf, 0xba, 0x6e, 0x4f, 0xea, 0xbd, 0x0f, 0x2e, 0x41, 0xbe,
  0x83, 0x1c, 0x86, 0x3b, 0x10, 0xde, 0x0a, 0xbf, 0x05, 0xb2, 0x19, 0xbe,
  0xdd, 0xc0, 0xe4, 0xbe, 0x31, 0x39, 0x2d, 0xbe, 0x9f, 0x0f, 0xa3, 0xbe,
  0x42, 0x1c, 0x2d, 0xbe, 0xc7, 0x0c, 0x75, 0xbc, 0xf6, 0xfc, 0xa9, 0xbe,
  0xf8, 0x5b, 0xc7, 0xbe, 0x66, 0xf9, 0x01, 0xbe, 0x93, 0x64, 0x1d, 0xbe,
  0x63, 0x5a, 0x83, 0xbe, 0xea, 0xa7, 0xca, 0xbe, 0x4f, 0xd7, 0x2e, 0xbe,
  0x69, 0x2d, 0x1c, 0xbf, 0x1d, 0x18, 0x8f, 0xbd, 0x32, 0xe8, 0xd2, 0xbe,
  0x21, 0x28, 0xf7, 0xbd, 0x53, 0x0f, 0xbf, 0xbe, 0xdd, 0x7d, 0x21, 0xbe,
  0x74, 0x8f, 0x85, 0xbe, 0x3f, 0xec, 0x87, 0x3d, 0x5d, 0x65, 0xc6, 0xbc,
  0xfe, 0xd8, 0x54, 0x3d, 0xdc, 0x57, 0x8c, 0xbe, 0xc3, 0x70, 0xc7, 0xbe,
  0x9d, 0x46, 0xf3, 0xbe, 0xd9, 0x8d, 0x7c, 0xba, 0x2c, 0xd1, 0x82, 0xbe,
  0xe2, 0x5e, 0xff, 0xbe, 0x2a, 0x12, 0xc3, 0x3d, 0xa2, 0x76, 0xca, 0x3e,
  0x38, 0x20, 0x72, 0x3d, 0xc7, 0xcb, 0xa7, 0x3e, 0x11, 0x61, 0x69, 0xbd,
  0x13, 0x14, 0x58, 0x3c, 0x4b, 0x5f, 0x95, 0xbe, 0x2d, 0x7f, 0x00, 0x3d,
  0x25, 0xcd, 0xed, 0xbd, 0x4f, 0x57, 0xa4, 0x3d, 0x89, 0x9d, 0xa9, 0x3e,
  0x66, 0x30, 0x5c, 0xbe, 0xc5, 0x17, 0x43, 0x3d, 0x9a, 0x1c, 0x35, 0x3e,
  0xcc, 0x37, 0xc8, 0x3d, 0xba, 0x4a, 0x12, 0xbd, 0x23, 0x3c, 0x94, 0x3d,
  0x7c, 0x98, 0x43, 0x3e, 0x2a, 0x0c, 0x53, 0xbc, 0xc1, 0xd5, 0x5a, 0x3e,
  0x36, 0xc9, 0x29, 0xbd, 0xad, 0xfd, 0xb4, 0x3e, 0xae, 0xee, 0xc8, 0xbd,
  0x88, 0xae, 0xc2, 0x3d, 0x35, 0xea, 0xce, 0xbd, 0x8e, 0x5b, 0x96, 0xbc,
  0x03, 0xdd, 0xdf, 0x3e, 0xab, 0x68, 0x31, 0xbd, 0xf5, 0x4e, 0x90, 0x3e,
  0xbb, 0x00, 0x02, 0x3e, 0xa6, 0x82, 0x0a, 0x3e, 0x4c, 0xc0, 0x00, 0x3e,
  0x47, 0xe4, 0x11, 0x3e, 0xc2, 0x2d, 0x7e, 0x3c, 0x86, 0xf2, 0x94, 0x3d,
  0x28, 0xc9, 0x90, 0x3d, 0x10, 0xf7, 0x39, 0x3e, 0x7b, 0x52, 0x15, 0x3d,
  0x21, 0x87, 0xec, 0xbd, 0xce, 0x00, 0x9b, 0xbd, 0x8a, 0x50, 0xb0, 0xbc,
  0xbc, 0xa9, 0x15, 0x3e, 0xa9, 0x0b, 0xfc, 0x3e, 0xb0, 0x9f, 0x29, 0xbd,
  0x84, 0x8b, 0x8d, 0x3d, 0x59, 0x6e, 0x82, 0x3e, 0xd1, 0x2c, 0x1a, 0x3d,
  0x58, 0x60, 0xab, 0x3d, 0x30, 0xee, 0x7a, 0xbd, 0x12, 0x5d, 0x00, 0x3e,
  0xe4, 0x93, 0x8c, 0xbe, 0x46, 0x19, 0x31, 0xbe, 0xaf, 0x1c, 0xae, 0xbd,
  0x62, 0xd6, 0xc9, 0x3c, 0x81, 0x01, 0x11, 0xbd, 0x8e, 0xed, 0x4e, 0xbe,
  0xcd, 0x60, 0x20, 0xbd, 0x22, 0xa2, 0xf3, 0xbd, 0x45, 0xf6, 0x19, 0xbd,
  0x8a, 0xb4, 0x63, 0x3c, 0x8c, 0x3b, 0x2f, 0xbe, 0x9c, 0x5d, 0x25, 0x3b,
  0x21, 0xf6, 0x41, 0xbe, 0x2d, 0xf5, 0xee, 0xbd, 0x44, 0x78, 0xa8, 0x3d,
  0x75, 0x8d, 0x62, 0xbc, 0xa2, 0x04, 0x2a, 0x3d, 0x90, 0x71, 0x90, 0x3d,
  0x6c, 0x16, 0xa0, 0xbc, 0x6c, 0x03, 0xc7, 0xbd, 0x33, 0xe8, 0x9f, 0xbd,
  0x5f, 0xae, 0x5d, 0x3d, 0xee, 0xea, 0x36, 0x3d, 0xb0, 0x69, 0x9f, 0xbd,
  0x95, 0x08, 0x93, 0xbd, 0x66, 0xa8, 0x08, 0x3c, 0xdb, 0x36, 0x92, 0xbe,
  0x8f, 0xb5, 0x1b, 0xbe, 0xc2, 0x23, 0xb4, 0xbd, 0xe7, 0x6f, 0x62, 0xbe,
  0xd9, 0x39, 0x01, 0xbe, 0x29, 0xf2, 0x03, 0xbe, 0x09, 0x3e, 0x89, 0x3c,
  0x34, 0x68, 0x5d, 0xbe, 0xe0, 0x5a, 0xf1, 0xbd, 0x9c, 0x4c, 0x67, 0xbe,
  0x9e, 0xa3, 0x5e, 0xbd, 0xc4, 0x20, 0x45, 0xbd, 0x62, 0xb8, 0x29, 0xbe,
  0x53, 0xa6, 0x0d, 0xbc, 0xb4, 0x01, 0x50, 0xbe, 0xc4, 0x9c, 0x90, 0x3d,
  0x63, 0xa3, 0x9f, 0xbd, 0xc2, 0x65, 0x01, 0xbe, 0x45, 0xd6, 0xd8, 0x3d,
  0xb8, 0xf4, 0x38, 0xbe, 0x7d, 0xea, 0xbc, 0xbb, 0x60, 0x73, 0x30, 0xbe,
  0x7d, 0x79, 0x40, 0x39, 0x2a, 0x36, 0x0c, 0xbd, 0x4f, 0xe8, 0x46, 0xbe,
  0x78, 0xc0, 0x5e, 0x3d, 0x0f, 0x12, 0x2d, 0x3e, 0x77, 0x30, 0xfa, 0x3d,
  0xd9, 0xf5, 0x6b, 0xbe, 0xf1, 0x9b, 0xc4, 0xbd, 0xba, 0x8f, 0xfd, 0x3d,
  0xb7, 0xf9, 0x36, 0xbe, 0xb3, 0xf0, 0x0e, 0x3e, 0x52, 0x2b, 0x25, 0x3d,
  0x23, 0x2a, 0x24, 0xbe, 0x4c, 0x13, 0x85, 0x3d, 0xf1, 0xcd, 0x3b, 0xbe,
  0x83, 0x43, 0x32, 0xbe, 0xd7, 0x1b, 0x4a, 0xbe, 0x2b, 0x97, 0x1d, 0x3e,
  0x00, 0x52, 0x33, 0xbe, 0xd2, 0x21, 0xd7, 0xbd, 0x51, 0xb5, 0xdc, 0x3d,
  0x6d, 0xce, 0x6a, 0x3e, 0xb6, 0x4f, 0x49, 0xbe, 0x60, 0x37, 0x2f, 0xbe,
  0xbc, 0xd7, 0x14, 0xbd, 0x1a, 0xbb, 0x34, 0x3e, 0x87, 0x55, 0xde, 0xbd,
  0xc9, 0x04, 0x20, 0xbe, 0xe1, 0xfd, 0x96, 0x3d, 0xa8, 0xdc, 0x24, 0xbe,
  0x23, 0xbb, 0x28, 0xbd, 0xd8, 0x23, 0xda, 0x3b, 0x7d, 0x6f, 0x40, 0xbe,
  0x82, 0x58, 0x63, 0xbd, 0xae, 0xbf, 0xa1, 0xbe, 0x49, 0x2e, 0x1c, 0x3e,
  0x30, 0xa7, 0x58, 0xbd, 0xa4, 0x2c, 0x70, 0x3e, 0x6c, 0xc0, 0x81, 0xbe,
  0xa0, 0x79, 0x20, 0x3e, 0x85, 0xe4, 0x98, 0xbd, 0xa9, 0x75, 0x65, 0xbd,
  0x10, 0xbb, 0xe7, 0xbd, 0x05, 0xdc, 0xa8, 0xbc, 0x88, 0x7b, 0xf1, 0x3d,
  0xd5, 0x42, 0x8a, 0x3d, 0xcd, 0x85, 0x79, 0xbe, 0xd4, 0x1e, 0x02, 0xbe,
  0x53, 0x5a, 0x24, 0xbe, 0x48, 0xb1, 0x0c, 0xbe, 0x50, 0xf4, 0x61, 0xbe,
  0x0d, 0xe8, 0x61, 0xbe, 0x1d, 0x6b, 0x7d, 0xbe, 0x05, 0x4e, 0xbd, 0x3d,
  0xd2, 0xdb, 0x2c, 0xbd, 0xc2, 0x4d, 0xce, 0xbd, 0x37, 0xb7, 0x5a, 0xbe,
  0x75, 0xd9, 0x1e, 0xbe, 0x11, 0x55, 0x4a, 0xbc, 0xa6, 0x9a, 0xf5, 0xbb,
  0xe2, 0x01, 0xa4, 0x3d, 0x6c, 0x89, 0x32, 0xbe, 0x38, 0xf9, 0x63, 0xbd,
  0x4b, 0xa1, 0x0a, 0xbf, 0xe8, 0x9a, 0xa6, 0x3d, 0x35, 0x59, 0x01, 0xbf,
  0x47, 0x05, 0xe4, 0xbd, 0x3c, 0xd8, 0xe2, 0xbe, 0xb1, 0x92, 0x85, 0x3e,
  0x81, 0xb0, 0x10, 0x3f, 0x0e, 0x39, 0x45, 0x3e, 0x86, 0xc6, 0x10, 0x3d,
  0xd7, 0x11, 0x01, 0xbf, 0x05, 0xb2, 0x52, 0xbe, 0xf9, 0x1f, 0xca, 0xbe,
  0x9a, 0x4c, 0xc8, 0xbe, 0x25, 0x64, 0x24, 0xbe, 0x8e, 0x17, 0xde, 0xbe,
  0xe1, 0xd5, 0x91, 0x3e, 0x4a, 0xb9, 0x78, 0xbe, 0x06, 0xca, 0x9e, 0xbd,
  0x42, 0x03, 0x72, 0xbe, 0x4d, 0x8a, 0x77, 0xbd, 0xd3, 0x0b, 0x95, 0xbe,
  0xaa, 0xe1, 0x89, 0x3d, 0x7f, 0xa0, 0x96, 0x3e, 0xe6, 0x82, 0x35, 0x3e,
  0x6d, 0x84, 0xb4, 0xbd, 0x4e, 0xc0, 0x54, 0xbe, 0x96, 0xc7, 0x2b, 0xbe,
  0x7f, 0x74, 0x8f, 0x3c, 0x8d, 0x41, 0x56, 0xbd, 0xa3, 0x3a, 0xc6, 0xbe,
  0x2f, 0x8b, 0x5d, 0xbe, 0xae, 0xff, 0x04, 0x3f, 0x47, 0x96, 0x05, 0x3f,
  0x27, 0xb8, 0xa7, 0x3e, 0x07, 0xb5, 0x38, 0x3d, 0x45, 0x49, 0x67, 0xbb,
  0x2f, 0x0e, 0x42, 0xbe, 0xf6, 0x7b, 0x04, 0xbd, 0xa4, 0xa7, 0xf6, 0x3e,
  0x89, 0xc4, 0x8a, 0x3e, 0xbe, 0x9e, 0xd1, 0xbd, 0x40, 0xcd, 0xa0, 0xbd,
  0xee, 0x14, 0x5e, 0xbe, 0xd8, 0xb9, 0x3a, 0x3e, 0x7a, 0x26, 0x56, 0x3e,
  0x9f, 0xc9, 0x44, 0xbd, 0x96, 0x8e, 0xa9, 0xbd, 0x06, 0xc8, 0xaf, 0x3e,
  0xa0, 0x4f, 0x09, 0x3f, 0xa3, 0xf9, 0x88, 0x3e, 0xec, 0x7e, 0xec, 0x3d,
  0x1d, 0x73, 0x53, 0x3d, 0xae, 0x03, 0x71, 0xbe, 0xc2, 0x33, 0x94, 0x3d,
  0x44, 0x5c, 0x32, 0x3f, 0xb5, 0xa7, 0x99, 0x3d, 0x20, 0x51, 0x91, 0xbe,
  0xc6, 0x23, 0xdd, 0xbb, 0xc0, 0x62, 0x20, 0xbe, 0xd9, 0xe2, 0xe4, 0x3c,
  0xd7, 0x6b, 0x01, 0x3e, 0x1a, 0xb6, 0xd6, 0xbd, 0xfe, 0x9f, 0xc8, 0xbd,
  0x3b, 0x61, 0xc3, 0x3e, 0x4f, 0x90, 0xa6, 0xbe, 0xc0, 0x2a, 0x52, 0x3e,
  0x5c, 0xd3, 0x85, 0xbe, 0x01, 0xae, 0xdd, 0x3b, 0x4a, 0xe5, 0x30, 0xbe,
  0xed, 0x66, 0x08, 0x3e, 0x46, 0x7b, 0x00, 0x3f, 0xfa, 0xf8, 0x30, 0x3e,
  0x64, 0x85, 0xee, 0x3d, 0x2a, 0xd7, 0x86, 0xbe, 0xe1, 0x29, 0x15, 0xbe,
  0xf5, 0x04, 0x95, 0xbe, 0xf3, 0x53, 0x78, 0xbe, 0x2b, 0x9d, 0xe7, 0xbd,
  0x47, 0x14, 0x9e, 0xbe, 0xa4, 0x97, 0x91, 0x3e, 0xc5, 0x17, 0x02, 0xbe,
  0xed, 0x3e, 0x01, 0x3d, 0xc5, 0x8e, 0x8b, 0xbe, 0x4e, 0xbe, 0x05, 0xbd,
  0xd3, 0xcb, 0x9b, 0xbe, 0xbc, 0x4c, 0x14, 0x3e, 0x7e, 0x69, 0xe4, 0x3e,
  0xac, 0xcf, 0xda, 0x3d, 0x4f, 0x61, 0x03, 0xbe, 0x8c, 0x25, 0xe3, 0xbe,
  0x4f, 0x18, 0xcc, 0xbd, 0x29, 0xd4, 0xac, 0xbe, 0x41, 0x84, 0xab, 0xbd,
  0xb9, 0x88, 0x03, 0xbe, 0xb7, 0x73, 0x96, 0xbe, 0xa8, 0x87, 0x99, 0x3e,
  0x03, 0xff, 0x4c, 0xbe, 0xb8, 0x86, 0xd3, 0x3c, 0xd9, 0x11, 0x2c, 0x3b,
  0xb9, 0x0d, 0xd1, 0xbb, 0x73, 0xaf, 0xc1, 0xbe, 0x00, 0x2e, 0xc8, 0xbd,
  0x41, 0x1c, 0x98, 0xbc, 0xd3, 0x95, 0xe0, 0x3c, 0xd7, 0xcc, 0x96, 0x3d,
  0x64, 0x91, 0x05, 0xbe, 0xa2, 0xef, 0x1f, 0xbe, 0x1f, 0xd5, 0x30, 0xbd,
  0x79, 0x48, 0x42, 0xbe, 0x03, 0xcc, 0xd3, 0xbd, 0x69, 0x9b, 0x1f, 0xbe,
  0xd3, 0x14, 0x15, 0xbe, 0x66, 0xa3, 0xfd, 0xbd, 0x4a, 0xfa, 0x0e, 0xbf,
  0xd7, 0x50, 0xd8, 0xbd, 0xab, 0x7f, 0x9d, 0xbd, 0xa7, 0xb3, 0x3a, 0xbb,
  0x4a, 0x9a, 0x00, 0xbf, 0x78, 0x86, 0x2b, 0xbe, 0x44, 0x7e, 0x01, 0xbf,
  0x44, 0x63, 0x31, 0xbc, 0x81, 0x2e, 0xde, 0xbd, 0x96, 0x19, 0xbd, 0xbd,
  0xa3, 0x56, 0x04, 0xbe, 0xa0, 0x08, 0xbc, 0xbe, 0xe5, 0x56, 0xbb, 0xbc,
  0x7f, 0xda, 0x80, 0xbe, 0x15, 0xb3, 0xb2, 0x3e, 0x3c, 0xa6, 0x81, 0x3b,
  0xf9, 0xdf, 0xdd, 0x3d, 0x67, 0x35, 0xfe, 0xbd, 0x45, 0x2b, 0x64, 0xbc,
  0xbe, 0x2d, 0x8e, 0xbd, 0x7e, 0xf6, 0x16, 0xbf, 0x7b, 0xa6, 0xcd, 0xbe,
  0x47, 0x35, 0x09, 0xbf, 0x5f, 0xd1, 0xb3, 0xbd, 0xea, 0x91, 0x83, 0xbd,
  0xa7, 0x85, 0xa2, 0xbe, 0x17, 0x8d, 0x12, 0xbe, 0x9a, 0xda, 0xcd, 0x3d,
  0x61, 0x06, 0x8f, 0xbd, 0x44, 0xfe, 0x7e, 0xbe, 0x60, 0x97, 0x09, 0x3e,
  0xe5, 0xfc, 0x8a, 0xbd, 0x5a, 0x81, 0xde, 0x3d, 0xf0, 0xb2, 0x38, 0xbd,
  0x8c, 0x9b, 0x96, 0xbd, 0xc0, 0x4a, 0x91, 0xbe, 0x25, 0xb8, 0x84, 0xbd,
  0x09, 0xc3, 0x81, 0x3e, 0xd3, 0x83, 0xc9, 0xbd, 0xf8, 0x63, 0x28, 0xbe,
  0xb7, 0x90, 0x2b, 0xbe, 0x65, 0xa8, 0xa8, 0xbc, 0xbe, 0x01, 0x04, 0xbe,
  0xdc, 0x9e, 0x21, 0xbe, 0x57, 0xe1, 0x3c, 0xbe, 0xd9, 0x87, 0x2d, 0xbe,
  0x2d, 0xfa, 0x90, 0xbc, 0xdf, 0x06, 0xb0, 0x3d, 0x51, 0x32, 0xbf, 0x3c,
  0x0d, 0xb1, 0xf3, 0x3d, 0xc1, 0x57, 0x39, 0xbd, 0x63, 0x9b, 0x26, 0xbe,
  0xb4, 0x73, 0x38, 0x3d, 0x7e, 0xdf, 0xba, 0x3e, 0x75, 0x87, 0x83, 0x3e,
  0xb3, 0xb0, 0xba, 0x3c, 0x65, 0xa9, 0xca, 0x3c, 0x4c, 0x64, 0x1e, 0xbe,
  0xa4, 0x7e, 0xe5, 0x3c, 0x18, 0x35, 0xa4, 0xbe, 0xc0, 0x46, 0x6c, 0xbe,
  0xf0, 0xd0, 0x55, 0xbe, 0x80, 0xf6, 0xf7, 0x3d, 0x2f, 0x42, 0xee, 0xbd,
  0xe7, 0x56, 0xfa, 0x3d, 0x66, 0x33, 0xa1, 0xbe, 0xfb, 0xde, 0x3e, 0xbd,
  0x1d, 0x45, 0x95, 0xbe, 0x4c, 0x6e, 0x8f, 0x3d, 0x7f, 0x0f, 0x03, 0x3f,
  0xf9, 0x1e, 0x2b, 0x3e, 0x01, 0x6e, 0x0c, 0xbe, 0x78, 0x9c, 0xcf, 0xbe,
  0x70, 0x1e, 0x77, 0xbe, 0x14, 0xec, 0x88, 0xbd, 0xe4, 0xbb, 0x0f, 0x3d,
  0xbd, 0x14, 0x40, 0xbe, 0x72, 0xe7, 0x33, 0xbe, 0x98, 0x8e, 0x3f, 0xbb,
  0xf6, 0x63, 0xb7, 0xbe, 0x7a, 0xca, 0x4b, 0x3e, 0x99, 0x68, 0x22, 0xbf,
  0x06, 0xc4, 0x8a, 0x3b, 0x31, 0x9a, 0x03, 0xbf, 0x99, 0x02, 0x08, 0x3e,
  0xdd, 0xde, 0x4a, 0x3e, 0x89, 0xe8, 0x76, 0x3d, 0xde, 0x51, 0xc3, 0xbe,
  0x66, 0xad, 0x54, 0xbe, 0x76, 0x90, 0xea, 0xbe, 0x99, 0x4e, 0x8d, 0xbe,
  0xe3, 0xdc, 0x1d, 0x3e, 0x5c, 0xc5, 0x22, 0xbd, 0x0b, 0xef, 0x4e, 0xbe,
  0x03, 0xa7, 0x6d, 0x3d, 0xe7, 0xaa, 0x72, 0xbd, 0x0c, 0x0e, 0x56, 0x3e,
  0xa6, 0x96, 0x27, 0xbe, 0x1d, 0x44, 0xa6, 0xbb, 0x48, 0x41, 0xfd, 0xbd,
  0x50, 0x84, 0x86, 0x3d, 0x53, 0x69, 0x11, 0x3e, 0x60, 0x2e, 0x0a, 0x3d,
  0x31, 0xa3, 0xb2, 0xbe, 0x82, 0x1e, 0xfb, 0xbd, 0x1f, 0xf6, 0x91, 0xbe,
  0x3e, 0xdb, 0xb9, 0x3d, 0x57, 0x43, 0x5e, 0x3e, 0x3c, 0xcf, 0x0a, 0x3d,
  0x77, 0xf0, 0x38, 0xbd, 0xa2, 0x4e, 0x6c, 0xbe, 0xcd, 0xd8, 0x38, 0x3d,
  0x84, 0x8c, 0x05, 0xbd, 0x3c, 0x88, 0xbd, 0xbd, 0xfb, 0x98, 0xb0, 0xbe,
  0xc6, 0x5c, 0x67, 0xbd, 0xd2, 0xa8, 0x17, 0x3d, 0x36, 0x41, 0xb0, 0x3d,
  0xce, 0x5c, 0x29, 0xbe, 0x3c, 0xe2, 0x92, 0x3e, 0x3f, 0x49, 0xc2, 0xbd,
  0xef, 0xe4, 0x2b, 0x3e, 0xd8, 0xd7, 0xea, 0xbd, 0xd0, 0x5c, 0x52, 0xbd,
  0x3c, 0x09, 0xdf, 0xbd, 0xcc, 0xe4, 0xca, 0xbe, 0xdc, 0xea, 0x70, 0xbe,
  0xcd, 0x3b, 0xa2, 0x3d, 0x4d, 0x18, 0x14, 0x3f, 0xe3, 0x5c, 0x82, 0xbd,
  0xd8, 0x2c, 0x63, 0xbe, 0xc5, 0x15, 0x13, 0xbd, 0x96, 0xa7, 0x83, 0x3d,
  0xd2, 0xaf, 0x34, 0x3d, 0x79, 0x37, 0x5f, 0xbc, 0xdb, 0x9f, 0xb9, 0xbd,
  0x9c, 0x6d, 0x3b, 0x3f, 0x70, 0xff, 0xb3, 0x3d, 0x73, 0xa6, 0xb6, 0x3d,
  0x0e, 0x07, 0x65, 0xbe, 0xf5, 0xcd, 0x1a, 0x3f, 0x24, 0xec, 0xa9, 0xbe,
  0x3c, 0x73, 0xbe, 0xbd, 0xdf, 0xa1, 0x23, 0x3e, 0x86, 0x52, 0x2f, 0x3f,
  0x5f, 0xe9, 0x1d, 0x3e, 0x40, 0x62, 0xd3, 0xbe, 0x77, 0x96, 0x6c, 0x3d,
  0x1e, 0x8d, 0x99, 0x3d, 0x58, 0x09, 0x04, 0xbc, 0xae, 0x95, 0x38, 0xbe,
  0xaa, 0x6d, 0x87, 0x3e, 0xab, 0x54, 0x9a, 0x3f, 0xad, 0x5a, 0xb4, 0x3d,
  0xf5, 0x5b, 0x18, 0xbe, 0x7c, 0x76, 0xbb, 0x3d, 0x41, 0x6a, 0xd9, 0x3e,
  0x77, 0x6d, 0x87, 0xbe, 0x40, 0x18, 0x39, 0xbc, 0x5d, 0x77, 0xf1, 0x3d,
  0xd7, 0xc3, 0x8e, 0x3e, 0x44, 0x05, 0xf7, 0x3d, 0xfa, 0x4e, 0x96, 0xbe,
  0xa9, 0xcb, 0x04, 0xba, 0xb2, 0xa5, 0x6e, 0xbc, 0x97, 0xfd, 0x16, 0x3e,
  0x51, 0xa6, 0xd8, 0xbd, 0x80, 0x0e, 0x25, 0x3e, 0xe3, 0x5e, 0x67, 0x3f,
  0x0c, 0xd8, 0xf4, 0x3c, 0xdf, 0x8a, 0x0a, 0x3e, 0xc5, 0x16, 0xc7, 0x3d,
  0x20, 0x14, 0x3e, 0x3f, 0xf6, 0xac, 0xb2, 0xbe, 0x0f, 0xc5, 0xab, 0xbc,
  0xb8, 0x5a, 0xdb, 0x3d, 0x11, 0x0f, 0x26, 0x3e, 0x9b, 0x9b, 0xbb, 0x3c,
  0x41, 0xcf, 0xef, 0xbe, 0x86, 0x85, 0x09, 0xbe, 0x56, 0x22, 0x25, 0x3d,
  0x1c, 0x70, 0xb3, 0x3e, 0x97, 0xfb, 0xda, 0xbc, 0x20, 0x2f, 0x79, 0xbd,
  0xa1, 0xe5, 0x82, 0x3f, 0xc3, 0x3b, 0x8f, 0x3e, 0x80, 0x25, 0x96, 0xba,
  0x9c, 0xa1, 0x21, 0xbe, 0xaf, 0xfc, 0x42, 0x3f, 0x1c, 0x0e, 0x29, 0xbe,
  0x3b, 0xa9, 0x8f, 0xbd, 0xe5, 0x51, 0xb5, 0x3d, 0x92, 0x6a, 0x81, 0xbc,
  0x2c, 0xfd, 0x3a, 0xbc, 0xb7, 0x78, 0x8c, 0xbe, 0x2b, 0xe2, 0x75, 0xbe,
  0x56, 0x37, 0x51, 0xbe, 0x86, 0xd7, 0x58, 0x3b, 0x06, 0xff, 0x31, 0x3d,
  0x3b, 0x02, 0x8d, 0x3d, 0xc9, 0x51, 0xc5, 0x3e, 0xad, 0x6b, 0xc0, 0xbc,
  0x56, 0x7f, 0x60, 0xbd, 0x9e, 0x67, 0xf2, 0xbd, 0x5a, 0xcb, 0xab, 0x3e,
  0x9a, 0x9b, 0x6b, 0xbe, 0x1c, 0x3d, 0x10, 0x3e, 0x2b, 0xed, 0x34, 0xbe,
  0xfa, 0xbf, 0xa9, 0x3d, 0x47, 0x64, 0x11, 0xbe, 0xe9, 0x13, 0xd4, 0xbe,
  0x35, 0x5c, 0x19, 0xbe, 0xf3, 0xe4, 0x43, 0xbe, 0x42, 0xea, 0xad, 0x3c,
  0x2d, 0x31, 0x8d, 0xbe, 0x61, 0xb5, 0x1f, 0x3d, 0x79, 0x95, 0x27, 0x3f,
  0x33, 0xa0, 0x1a, 0x3e, 0x36, 0xd5, 0x74, 0xbe, 0xfb, 0x24, 0xf0, 0xbc,
  0x0c, 0x27, 0xcb, 0x3e, 0x48, 0x25, 0xa3, 0xbe, 0x46, 0x5e, 0xdb, 0x3d,
  0x43, 0xbe, 0x1a, 0x3e, 0x10, 0xa0, 0x0e, 0x3e, 0x21, 0xb1, 0x00, 0x3e,
  0x47, 0xde, 0xd7, 0xbb, 0xb6, 0xa8, 0x90, 0x3d, 0x90, 0x61, 0x58, 0x3d,
  0x33, 0xf1, 0xa9, 0x3b, 0xbe, 0xd4, 0xcd, 0x3c, 0x7a, 0xcd, 0x21, 0xbe,
  0x2b, 0x7f, 0x7a, 0xbd, 0xd8, 0x48, 0x4f, 0xbe, 0x11, 0xb9, 0x62, 0x3e,
  0x68, 0x78, 0x16, 0xbe, 0x55, 0x55, 0x33, 0xbd, 0xb1, 0xf4, 0xd3, 0x3c,
  0xe1, 0xc3, 0x68, 0x3c, 0xda, 0x25, 0x8d, 0x3c, 0x5f, 0xac, 0x23, 0x3d,
  0x4f, 0x3b, 0xa2, 0x3d, 0x50, 0x0d, 0xef, 0xbb, 0x18, 0x00, 0xd3, 0xbd,
  0x1c, 0x95, 0x1a, 0x3b, 0x90, 0x6c, 0xf0, 0x3c, 0xe4, 0x20, 0x20, 0x3e,
  0xe7, 0xce, 0x6b, 0xbd, 0xe3, 0xcc, 0x84, 0xbe, 0xc6, 0x3f, 0xa0, 0xbe,
  0x23, 0xcf, 0xf6, 0xbc, 0x70, 0xc0, 0xbf, 0xbd, 0x04, 0xc8, 0x12, 0xbe,
  0xc4, 0x01, 0xf4, 0xbd, 0xa6, 0x35, 0x15, 0x3d, 0x98, 0xa3, 0x1a, 0xbd,
  0xc4, 0xe5, 0x0e, 0xbd, 0xe3, 0xf0, 0x9e, 0x3d, 0xc2, 0x93, 0x82, 0xbc,
  0xa9, 0x27, 0x10, 0xbe, 0x52, 0x36, 0x68, 0xbd, 0x25, 0xa8, 0xc2, 0x3d,
  0x33, 0x8a, 0x08, 0x3e, 0x12, 0x55, 0x60, 0x3d, 0xa2, 0x78, 0xcb, 0x3d,
  0xcd, 0x92, 0xb0, 0xbe, 0xcf, 0xef, 0x2e, 0xbd, 0xdc, 0x82, 0x26, 0x3c,
  0x9a, 0x47, 0x59, 0xbe, 0xa8, 0x30, 0x06, 0xbe, 0xda, 0xe9, 0xc0, 0x3c,
  0x7f, 0xe7, 0xba, 0xbc, 0xce, 0x35, 0xad, 0x3c, 0xf6, 0x4e, 0x89, 0xbd,
  0x23, 0xc0, 0xce, 0xbc, 0xd7, 0xae, 0x9f, 0xbe, 0x22, 0x55, 0x11, 0x3c,
  0x73, 0xfa, 0xf3, 0xbd, 0x81, 0x2a, 0x92, 0xbc, 0xc6, 0xbf, 0xcd, 0x3d,
  0x9a, 0xc4, 0x26, 0x39, 0x6f, 0xb8, 0xca, 0xbd, 0xc1, 0xe2, 0xce, 0xbe,
  0x35, 0xbe, 0xa5, 0x3d, 0x8a, 0x46, 0xfc, 0xbd, 0x65, 0x31, 0x99, 0xbe,
  0x8e, 0xb6, 0xcd, 0x3d, 0x49, 0x5e, 0x8e, 0x3e, 0x85, 0x75, 0x5a, 0x3d,
  0xea, 0xf5, 0x95, 0x3e, 0x79, 0x05, 0x24, 0xbc, 0xca, 0xa5, 0x2f, 0xbe,
  0x04, 0x84, 0x69, 0xbb, 0x03, 0x35, 0x2a, 0xbe, 0xb4, 0x80, 0x1c, 0xbd,
  0xa1, 0xca, 0x78, 0xbd, 0xb7, 0x3b, 0x7d, 0x3e, 0xcc, 0xa8, 0x3e, 0xbe,
  0x11, 0x32, 0x2e, 0xbe, 0x6b, 0x9e, 0xc2, 0x3d, 0xc1, 0x9a, 0x8e, 0x3d,
  0xbd, 0x26, 0x31, 0xbe, 0x1d, 0x81, 0x0d, 0x3e, 0xf3, 0x4e, 0x16, 0x3e,
  0x12, 0x4c, 0x10, 0x3e, 0xb9, 0xb5, 0x5d, 0x3e, 0xb9, 0xd0, 0x62, 0x3b,
  0xc9, 0xd4, 0x60, 0x3d, 0xc1, 0x30, 0x64, 0x3c, 0xaa, 0x68, 0xb1, 0x3d,
  0x97, 0x87, 0x93, 0x3d, 0x95, 0x54, 0xe9, 0xbd, 0x06, 0x14, 0x93, 0x3e,
  0xe5, 0x49, 0xb1, 0xbe, 0x25, 0xe8, 0xbc, 0x3d, 0xba, 0xa4, 0x2b, 0xbd,
  0x70, 0x7c, 0xab, 0xbc, 0xc5, 0xb7, 0x93, 0xbd, 0x5b, 0x61, 0x6e, 0x3d,
  0x55, 0x10, 0x0c, 0x3d, 0xac, 0x7b, 0x0d, 0xbd, 0x73, 0x09, 0x2e, 0xbd,
  0x64, 0xad, 0x83, 0xbc, 0x3c, 0xf4, 0x12, 0xbe, 0xa0, 0x4c, 0xc1, 0x3b,
  0xc0, 0x68, 0x84, 0x3d, 0x05, 0xcd, 0x64, 0x3c, 0xfc, 0x7f, 0xb7, 0xbc,
  0xb2, 0x90, 0xa4, 0xbc, 0xee, 0x8c, 0x16, 0xbe, 0xe0, 0x09, 0xb6, 0x3d,
  0x0f, 0x40, 0xe2, 0x3c, 0xa2, 0xb9, 0x5a, 0xbd, 0xe1, 0xa1, 0x4a, 0x3d,
  0x77, 0x99, 0xa5, 0xbd, 0xee, 0x52, 0x11, 0x3e, 0x49, 0xcc, 0xef, 0xbd,
  0x77, 0x76, 0x3e, 0xbe, 0x44, 0x09, 0x3e, 0xbe, 0x05, 0x17, 0x25, 0x3c,
  0x5c, 0x9e, 0x11, 0xbd, 0xb2, 0x28, 0xd1, 0xbd, 0x0d, 0x41, 0xd0, 0x3d,
  0x96, 0x20, 0x6d, 0x3d, 0x42, 0x44, 0x1e, 0xbe, 0x1c, 0x65, 0x10, 0xbd,
  0xb5, 0x5e, 0x50, 0xbe, 0xdf, 0x37, 0x99, 0xbe, 0xb0, 0x55, 0x7b, 0xbe,
  0x74, 0x07, 0xa5, 0xbe, 0xf8, 0x4a, 0xf8, 0xbd, 0x75, 0x86, 0xfb, 0xbd,
  0x49, 0xec, 0x94, 0x3e, 0x57, 0xfe, 0x84, 0xbe, 0x81, 0xef, 0x8e, 0xbe,
  0xce, 0xf9, 0xbd, 0x3b, 0xcb, 0xea, 0x48, 0xbe, 0xfa, 0xc2, 0x86, 0x3e,
  0xc3, 0x9a, 0x43, 0xbe, 0x08, 0x26, 0xcb, 0x3d, 0xf1, 0x0f, 0x21, 0x3f,
  0x3c, 0x69, 0x6b, 0xbd, 0xdf, 0xdc, 0x5e, 0xbe, 0x8a, 0x6a, 0x9d, 0xbe,
  0x12, 0xc0, 0xff, 0x3d, 0x5d, 0x3d, 0x22, 0xbe, 0xa3, 0x2e, 0x1e, 0x3d,
  0x39, 0x6b, 0x4c, 0xbe, 0xd3, 0x26, 0xaf, 0x3e, 0x25, 0xb5, 0xe2, 0xbd,
  0x89, 0xe1, 0x55, 0xbe, 0x3d, 0xae, 0x89, 0xbe, 0xa1, 0xc7, 0x08, 0xbe,
  0x42, 0x3b, 0xf4, 0x3d, 0xe6, 0xb8, 0x8f, 0xbd, 0x20, 0x19, 0xfe, 0x3d,
  0x3f, 0xe3, 0x4f, 0x3f, 0xa2, 0x09, 0x02, 0x3d, 0x5f, 0x2f, 0x17, 0xbd,
  0xe9, 0xdd, 0x26, 0xbe, 0x15, 0x81, 0x97, 0x3e, 0x38, 0x8c, 0x8e, 0xbe,
  0x9f, 0x62, 0x9a, 0x3e, 0xb8, 0xfc, 0xd7, 0x3d, 0x53, 0xec, 0xdf, 0x3d,
  0xdb, 0xb1, 0x89, 0x3d, 0xde, 0xa4, 0x0b, 0xbe, 0x95, 0x02, 0xf4, 0xbd,
  0x77, 0xa9, 0x04, 0xbc, 0x0b, 0x14, 0xcd, 0x3d, 0x03, 0x08, 0x89, 0xbe,
  0xc7, 0x9c, 0x11, 0xbe, 0x60, 0x69, 0x89, 0x3f, 0xa6, 0xa1, 0x71, 0x3d,
  0x14, 0x83, 0x04, 0xbe, 0xf1, 0x5b, 0xa4, 0xbe, 0xe4, 0xdf, 0x1b, 0x3e,
  0xbc, 0x03, 0xe1, 0xbd, 0xb4, 0x20, 0x28, 0x3e, 0x0a, 0x31, 0x31, 0xbe,
  0x9e, 0x5f, 0x7c, 0x3d, 0xaf, 0x49, 0x1b, 0xbc, 0x67, 0xcc, 0x57, 0xbe,
  0x82, 0xfe, 0xe3, 0xbd, 0x2d, 0xb7, 0x6b, 0x3e, 0xaf, 0xf2, 0x0d, 0x3f,
  0x1d, 0xbd, 0x09, 0x3c, 0x02, 0xd9, 0xea, 0x3d, 0xdc, 0x69, 0x93, 0x3d,
  0x23, 0xa7, 0x57, 0x3e, 0xd6, 0x34, 0xc1, 0xbd, 0x53, 0xcf, 0x9f, 0xbe,
  0xbe, 0x1d, 0x01, 0x3f, 0x73, 0xcc, 0x83, 0xbe, 0x94, 0xc1, 0x89, 0xbc,
  0x20, 0x84, 0x81, 0xbe, 0xf9, 0x5b, 0x48, 0xbe, 0x3e, 0xc7, 0xb4, 0xbc,
  0xc6, 0xe7, 0x40, 0xbe, 0x55, 0xf2, 0x02, 0xbd, 0x11, 0x68, 0xfb, 0x3c,
  0x97, 0x48, 0xcf, 0x3e, 0x78, 0xd8, 0x87, 0x3d, 0xa8, 0x78, 0x29, 0x3b,
  0x75, 0x95, 0x7a, 0x3e, 0x30, 0xb5, 0xbf, 0x3c, 0xdc, 0x71, 0xe7, 0x3d,
  0x69, 0x77, 0x92, 0xbd, 0x12, 0x55, 0xdc, 0x3e, 0xa4, 0x70, 0x11, 0x3d,
  0x7b, 0xf4, 0x1d, 0xbb, 0x4e, 0x46, 0x8c, 0x3d, 0xef, 0xf4, 0x1a, 0xbd,
  0x8b, 0xdd, 0x17, 0xbe, 0xed, 0xa1, 0x46, 0xbe, 0x99, 0x1e, 0x53, 0xbe,
  0x2d, 0x43, 0x6b, 0xbe, 0xff, 0xe4, 0x4d, 0x3d, 0x9b, 0x12, 0x8a, 0xbe,
  0xec, 0xf4, 0x0b, 0xbe, 0x98, 0xbf, 0x21, 0x3e, 0x86, 0x67, 0x37, 0xbc,
  0x00, 0x8f, 0xc2, 0xbe, 0xd2, 0x4e, 0x0c, 0xbe, 0x1e, 0x61, 0x24, 0xbe,
  0x49, 0xdd, 0x0b, 0xbe, 0x57, 0xb3, 0x1f, 0xbd, 0x91, 0x7c, 0x29, 0xbe,
  0x97, 0x5c, 0x85, 0xbe, 0x0d, 0x7c, 0x8a, 0xbe, 0xa8, 0x21, 0x84, 0xbe,
  0xc5, 0x29, 0xa8, 0xbe, 0x57, 0x49, 0xe7, 0xbe, 0x61, 0x15, 0x9e, 0x3d,
  0xf6, 0xa7, 0x8c, 0xbe, 0xbd, 0x58, 0xe7, 0x3c, 0x86, 0xcd, 0x97, 0x3b,
  0x5b, 0xeb, 0x7c, 0xbe, 0x7f, 0x86, 0x28, 0xbd, 0x26, 0x70, 0xda, 0xbd,
  0x82, 0x6a, 0xc3, 0x3d, 0x05, 0x7a, 0x8d, 0xbe, 0x70, 0xe6, 0xc6, 0xbd,
  0x34, 0xf0, 0xfa, 0x3b, 0x55, 0x82, 0x97, 0xbe, 0x58, 0xab, 0x82, 0xbc,
  0x8b, 0x3e, 0x36, 0xbe, 0x2c, 0xee, 0x56, 0xbd, 0xde, 0x1a, 0x67, 0xbe,
  0xce, 0xc6, 0xd9, 0xbb, 0xd7, 0xca, 0x80, 0xbe, 0x28, 0x3f, 0x01, 0xbe,
  0xa1, 0x7a, 0xed, 0xbd, 0xa1, 0xa4, 0x98, 0xbe, 0xe2, 0xeb, 0x5a, 0xbd,
  0xa6, 0xea, 0x67, 0xbe, 0x6d, 0x23, 0xdb, 0xbd, 0xfb, 0x41, 0xde, 0xbd,
  0xdb, 0x47, 0x1f, 0xbe, 0x59, 0x3b, 0xab, 0xbd, 0x2c, 0xd0, 0xb5, 0xbe,
  0x9d, 0xf4, 0x78, 0xbd, 0xd2, 0xcd, 0x0f, 0xbe, 0x7c, 0x08, 0x23, 0x3c,
  0x23, 0xf2, 0xdf, 0xbd, 0xe0, 0x1b, 0x44, 0xba, 0x84, 0xe5, 0x8c, 0xbe,
  0x46, 0xc1, 0xa8, 0xbd, 0xed, 0x38, 0x55, 0x3d, 0xb0, 0x09, 0x52, 0xbe,
  0x0c, 0x97, 0x1d, 0xbe, 0x91, 0x7f, 0xad, 0xbe, 0xfd, 0x5f, 0xfd, 0x3d,
  0x21, 0x11, 0x81, 0xbc, 0xf4, 0xa9, 0x56, 0xbd, 0x60, 0xb6, 0xa2, 0xbd,
  0xd3, 0x12, 0x89, 0xbe, 0xfc, 0x6f, 0x82, 0x3c, 0xeb, 0x9b, 0x56, 0xbe,
  0x58, 0xf5, 0xd0, 0xbc, 0x3f, 0x12, 0x87, 0xbe, 0x0a, 0x2a, 0x2f, 0xbd,
  0x06, 0xb7, 0x82, 0xbe, 0x03, 0x94, 0x06, 0xbe, 0xd1, 0x89, 0x57, 0xbe,
  0xd6, 0x9c, 0x20, 0xbd, 0xdb, 0x54, 0x6d, 0xbe, 0x8b, 0x69, 0x51, 0xbe,
  0x3d, 0xbe, 0x3d, 0xbe, 0xa2, 0x0f, 0x40, 0xbd, 0xe8, 0xea, 0x50, 0xbe,
  0x43, 0xc6, 0xcd, 0xbd, 0x32, 0xe8, 0x09, 0xbf, 0x2a, 0xa2, 0x80, 0xbe,
  0xb7, 0x45, 0x1f, 0xbe, 0x3c, 0x1c, 0xb9, 0xbe, 0x0c, 0x0c, 0x9b, 0xbe,
  0xd0, 0xb5, 0x25, 0xbd, 0x19, 0xe0, 0xb9, 0xbe, 0x6f, 0x89, 0x1f, 0xbe,
  0x64, 0xce, 0x94, 0xbd, 0x00, 0xaf, 0x9b, 0xbe, 0x13, 0x54, 0xa9, 0xbd,
  0xad, 0x20, 0x9e, 0xbe, 0x6b, 0xbe, 0x1e, 0x3e, 0xc7, 0xe8, 0x53, 0xbe,
  0xe3, 0xc3, 0x1e, 0xbd, 0x2e, 0x4d, 0x7d, 0xbe, 0x25, 0xe0, 0x69, 0x3d,
  0x5f, 0xbc, 0x15, 0x3c, 0xa9, 0x68, 0xef, 0xbc, 0xb7, 0x7e, 0xaa, 0xbe,
  0x6f, 0xe2, 0xda, 0xbd, 0x24, 0xda, 0x52, 0x3e, 0x3d, 0x9e, 0x64, 0xbe,
  0x66, 0xe8, 0x94, 0x3d, 0xf5, 0xa0, 0x09, 0x3d, 0x8b, 0x0a, 0x44, 0xbe,
  0xb9, 0xfc, 0x38, 0xbe, 0x44, 0x02, 0x8b, 0x3e, 0x75, 0x28, 0x66, 0x3d,
  0x7f, 0x32, 0x0d, 0xbe, 0xc4, 0xc5, 0x80, 0x3e, 0xc6, 0x04, 0x19, 0x3e,
  0x64, 0xe2, 0x22, 0x3d, 0x32, 0xb4, 0x18, 0x3e, 0x23, 0xb6, 0xa3, 0x3d,
  0xc8, 0x1a, 0xbc, 0x3d, 0x3e, 0xa4, 0xa0, 0xbd, 0x6e, 0xc8, 0x5d, 0xbe,
  0x4b, 0xa8, 0x4e, 0xbe, 0x6b, 0x37, 0xba, 0xbe, 0x85, 0xe9, 0xb9, 0x3e,
  0x4d, 0x07, 0x7e, 0xbe, 0x41, 0xe8, 0xf4, 0x3d, 0xcb, 0x93, 0xfd, 0x3e,
  0x66, 0x24, 0x8d, 0xbe, 0x43, 0x19, 0x40, 0x3e, 0x56, 0x58, 0xce, 0xbe,
  0x93, 0xf4, 0x18, 0x3e, 0xc7, 0xc4, 0x27, 0xbe, 0x7d, 0x17, 0x92, 0x3d,
  0x6a, 0x91, 0xdd, 0xbd, 0xf4, 0xff, 0x81, 0xbd, 0xd0, 0x0a, 0x8d, 0x3d,
  0xde, 0x03, 0x33, 0xbe, 0xa1, 0xc5, 0x85, 0xbe, 0x69, 0xed, 0x00, 0xbd,
  0x64, 0xe8, 0x64, 0xbe, 0xa5, 0xa8, 0x04, 0xbe, 0x78, 0x86, 0x86, 0x3d,
  0x23, 0x91, 0x2b, 0x3e, 0x65, 0xf4, 0xce, 0xbd, 0xd4, 0x3e, 0x9f, 0xbd,
  0xe0, 0x22, 0x48, 0xbe, 0x85, 0xab, 0x60, 0x3d, 0x08, 0x30, 0x8c, 0xbe,
  0x42, 0xd0, 0x27, 0x3e, 0x2c, 0x6e, 0xfe, 0xbd, 0x34, 0x91, 0xd9, 0xbd,
  0x09, 0x3e, 0x38, 0xbd, 0x75, 0x2c, 0xaa, 0xbe, 0xa1, 0xd1, 0x82, 0xbe,
  0x54, 0x15, 0x1f, 0xbe, 0xfd, 0xd5, 0x16, 0xbe, 0x2c, 0x6f, 0x15, 0x3e,
  0x1e, 0x39, 0x67, 0x3e, 0xb5, 0x30, 0x5d, 0x3d, 0x81, 0x83, 0x13, 0xba,
  0xbb, 0x3d, 0xd0, 0x3d, 0x9f, 0x17, 0x29, 0xbe, 0x84, 0x2d, 0x96, 0xbc,
  0xa2, 0x63, 0xc4, 0xbd, 0xf8, 0xd0, 0x03, 0x3e, 0x06, 0x76, 0x45, 0xbd,
  0x27, 0x58, 0x0c, 0xbe, 0x2a, 0x18, 0x1c, 0xbd, 0x17, 0x4a, 0x08, 0xbd,
  0xe9, 0xfe, 0xb0, 0x3d, 0x5e, 0x0a, 0x3c, 0x3e, 0x80, 0x62, 0x64, 0xbc,
  0x7a, 0x36, 0xda, 0xbb, 0x09, 0xa9, 0x09, 0x3d, 0xd3, 0x26, 0x4f, 0x3e,
  0x74, 0xa4, 0x9e, 0x3d, 0xa2, 0x72, 0xec, 0xbc, 0x11, 0x13, 0x81, 0xbe,
  0x98, 0xbb, 0x3c, 0xbe, 0x24, 0xa4, 0x06, 0x3e, 0x3c, 0x0d, 0x3d, 0x3e,
  0x68, 0x42, 0x0a, 0xbe, 0xe2, 0xea, 0x86, 0xbc, 0xa4, 0xa7, 0xe8, 0x3d,
  0xd9, 0x84, 0x1a, 0xbe, 0x2d, 0x06, 0x87, 0xbc, 0xb0, 0xef, 0xb3, 0xbc,
  0x1a, 0x5d, 0x37, 0x3e, 0x81, 0x12, 0x50, 0xbe, 0xf3, 0x14, 0x1a, 0x3e,
  0x28, 0x27, 0x91, 0x3d, 0x30, 0xfb, 0x7d, 0x3c, 0x07, 0xc7, 0x8a, 0xbd,
  0x01, 0x7e, 0xc2, 0xbd, 0xba, 0x40, 0x99, 0x3d, 0x68, 0x70, 0x66, 0xbe,
  0x32, 0xe3, 0x3c, 0x3e, 0xcd, 0x25, 0x83, 0xbe, 0x2a, 0x57, 0x5a, 0x3e,
  0x37, 0xf9, 0x38, 0x3d, 0x66, 0x25, 0x0f, 0xbe, 0x0a, 0xaf, 0x3f, 0xbe,
  0x4f, 0xb6, 0x59, 0xbe, 0xc7, 0xb3, 0x13, 0x3b, 0xeb, 0x28, 0x82, 0xbd,
  0x1c, 0x4d, 0x51, 0x3e, 0x33, 0xd1, 0xc2, 0x3d, 0xac, 0xde, 0x44, 0xbe,
  0x9c, 0x66, 0xc1, 0xbd, 0x82, 0x67, 0x1b, 0xbe, 0xef, 0x11, 0x6e, 0xbe,
  0x30, 0x76, 0x74, 0xbe, 0xa9, 0xfd, 0x22, 0x3e, 0x53, 0xfb, 0x3c, 0x3d,
  0xae, 0xbd, 0x53, 0x3e, 0xa3, 0x68, 0xf7, 0x3d, 0x95, 0xbc, 0x0a, 0xbe,
  0x2c, 0x4c, 0x4d, 0xbe, 0x6e, 0xbd, 0x27, 0xbe, 0xbf, 0xe5, 0x02, 0x3d,
  0x7d, 0x25, 0xaa, 0xbd, 0x36, 0xc7, 0x0c, 0x3d, 0x77, 0xe1, 0xcd, 0xbd,
  0xc5, 0x5d, 0xe1, 0x3c, 0xdc, 0x97, 0xcd, 0xbe, 0x37, 0x8e, 0x25, 0xbd,
  0x96, 0x62, 0xc5, 0x3d, 0x55, 0x8c, 0xf5, 0xbd, 0xa5, 0x81, 0x92, 0xbd,
  0xfa, 0x66, 0x56, 0xbe, 0x2b, 0x70, 0xd7, 0x3d, 0x28, 0x00, 0xf7, 0xbd,
  0x41, 0x89, 0x29, 0xbe, 0x0b, 0xd1, 0x7c, 0xbe, 0x89, 0x4c, 0x06, 0xbe,
  0x5d, 0x46, 0xc4, 0xbd, 0x8e, 0x88, 0x15, 0xbe, 0xe3, 0xf2, 0x62, 0x3e,
  0x4d, 0x60, 0x82, 0xbc, 0x94, 0x89, 0x08, 0xbe, 0x04, 0x55, 0x8c, 0xbe,
  0xc6, 0x8c, 0x30, 0xbe, 0x41, 0xe5, 0xf1, 0x3c, 0xbf, 0xd2, 0xff, 0xbe,
  0xad, 0x2b, 0x11, 0xbe, 0x22, 0x03, 0xc0, 0xbe, 0xca, 0x0b, 0x44, 0xbe,
  0x1a, 0x2f, 0xc0, 0xbe, 0x5c, 0x05, 0x2a, 0x3d, 0x8d, 0x9a, 0x4d, 0xbe,
  0x16, 0x0d, 0xc2, 0xbe, 0x44, 0x7c, 0x32, 0x3d, 0x7b, 0x0b, 0x81, 0xbe,
  0xf6, 0x1a, 0x80, 0xbe, 0xeb, 0x62, 0xde, 0xbc, 0x5f, 0x99, 0x15, 0xbe,
  0xa5, 0xaa, 0x56, 0xbe, 0x1e, 0x20, 0x1b, 0xbe, 0xac, 0x03, 0x89, 0xbd,
  0xec, 0x21, 0xd6, 0xbe, 0xbb, 0x09, 0x02, 0x3e, 0x03, 0x6b, 0xd2, 0xbe,
  0x20, 0xcf, 0x92, 0x3d, 0x9b, 0x72, 0x8b, 0xbd, 0xf1, 0x49, 0x91, 0xbe,
  0xa2, 0xc4, 0x6f, 0x3d, 0x52, 0x63, 0x8b, 0xbe, 0x6e, 0xe0, 0xb4, 0x3d,
  0xe9, 0x2f, 0x1e, 0xbe, 0xd5, 0x02, 0x80, 0xbe, 0x6a, 0xa1, 0x79, 0xbe,
  0xca, 0x7e, 0x23, 0xbe, 0x0f, 0x5a, 0x2a, 0xbe, 0xc2, 0xf3, 0x53, 0xbe,
  0x23, 0x98, 0xd9, 0xbc, 0xd7, 0x9b, 0x9e, 0xbe, 0xbf, 0xdf, 0x08, 0x3d,
  0x14, 0x74, 0xea, 0xbe, 0x1c, 0x15, 0x6d, 0xbc, 0x70, 0xf6, 0x8c, 0xbd,
  0x07, 0x32, 0xa0, 0xbd, 0xfc, 0x1a, 0x85, 0xbe, 0x21, 0x39, 0x92, 0xbe,
  0xb2, 0xdb, 0x27, 0xbe, 0x3d, 0xd5, 0x04, 0xbe, 0x06, 0x09, 0x44, 0xbe,
  0x56, 0xcb, 0x2a, 0xbe, 0xbf, 0x68, 0x9f, 0xbc, 0x5f, 0x71, 0x11, 0xbe,
  0x50, 0x96, 0xfb, 0xbe, 0x25, 0x75, 0x82, 0xbb, 0xee, 0xf7, 0xdb, 0xbe,
  0x07, 0x0e, 0x52, 0xbe, 0x02, 0x21, 0xde, 0xbe, 0x62, 0x59, 0xa4, 0xbe,
  0xc3, 0x85, 0xcf, 0xbd, 0xc5, 0xd6, 0x1e, 0x3e, 0x5f, 0x5d, 0x69, 0xbd,
  0x33, 0xb7, 0x87, 0xbd, 0x03, 0x36, 0x58, 0xbe, 0xf8, 0xaa, 0x9f, 0xbd,
  0x9e, 0x1b, 0xbe, 0xbd, 0xee, 0x79, 0xec, 0xbd, 0x28, 0xed, 0xb2, 0xbd,
  0xaa, 0xe9, 0xa0, 0xbe, 0x03, 0x4b, 0x1e, 0x3e, 0xbb, 0x80, 0x59, 0x3e,
  0x5d, 0x58, 0x82, 0x3c, 0xfd, 0x88, 0x8b, 0x3e, 0x0c, 0xb5, 0x4b, 0xbe,
  0x1f, 0xa4, 0x6c, 0x3e, 0x46, 0x6d, 0xef, 0xbd, 0x76, 0x5f, 0x19, 0xbd,
  0x85, 0xc5, 0x4d, 0x3c, 0xdb, 0x34, 0x31, 0xbe, 0x69, 0x6f, 0x02, 0x3e,
  0xa0, 0xce, 0x40, 0xbe, 0x2d, 0xd7, 0x96, 0xbd, 0x98, 0x45, 0xef, 0x3d,
  0x01, 0xf1, 0x5e, 0x3d, 0x3b, 0xdf, 0x9b, 0xbc, 0xad, 0x42, 0xf0, 0xbc,
  0xe6, 0x66, 0x4a, 0x3e, 0x5c, 0x99, 0xbb, 0xbd, 0x2e, 0x68, 0x53, 0x3e,
  0x49, 0x76, 0xb1, 0xbd, 0xf3, 0xcf, 0x8c, 0x3e, 0x04, 0x09, 0x04, 0xbe,
  0xa1, 0xbc, 0x9f, 0xbd, 0xf9, 0xfa, 0x48, 0x3b, 0x33, 0x21, 0x20, 0xbd,
  0x19, 0x79, 0xb7, 0x3e, 0xe6, 0xf4, 0x96, 0xbe, 0x5c, 0x9e, 0x48, 0x3d,
  0x36, 0x01, 0x57, 0x3e, 0x14, 0x11, 0x92, 0xbe, 0xa2, 0x5f, 0xaa, 0x3d,
  0xd7, 0xf6, 0x5a, 0x3e, 0x85, 0x0d, 0x78, 0xbd, 0x77, 0x31, 0xa8, 0x3d,
  0x03, 0x9f, 0x4d, 0x3e, 0x3b, 0x5b, 0x81, 0x3d, 0x00, 0xe2, 0x0b, 0xbd,
  0x7f, 0x09, 0x3d, 0xbd, 0x05, 0x89, 0x1a, 0xbc, 0x25, 0x3d, 0x7a, 0xbd,
  0x81, 0xb5, 0xe9, 0x3d, 0x49, 0xbb, 0x61, 0x3e, 0x61, 0xce, 0x9c, 0xbc,
  0x4a, 0x77, 0x1c, 0xbe, 0xfb, 0x80, 0xaa, 0x3d, 0xd3, 0x53, 0xd2, 0xbd,
  0xaa, 0xf5, 0xf8, 0xbd, 0x0b, 0xd6, 0xc4, 0xbd, 0x60, 0x62, 0x3e, 0xbe,
  0xe4, 0x77, 0xc7, 0xbd, 0x02, 0x79, 0x7d, 0xbd, 0x5c, 0x0e, 0xbc, 0xbe,
  0xbe, 0x3f, 0xb4, 0xbd, 0x6c, 0x12, 0x6a, 0x3d, 0x8a, 0x51, 0x00, 0xbb,
  0xaa, 0x57, 0x82, 0xbe, 0x98, 0x32, 0x8a, 0x3d, 0xf2, 0x80, 0x9e, 0x3b,
  0x11, 0xba, 0x79, 0x3d, 0x52, 0xbc, 0x3e, 0xbe, 0x71, 0xa4, 0x2e, 0xbe,
  0xec, 0xf6, 0x26, 0xbe, 0x47, 0x54, 0x90, 0xbd, 0x61, 0xb1, 0x81, 0xbe,
  0x58, 0xb0, 0x6f, 0xbc, 0x3e, 0xd4, 0x65, 0x3e, 0x88, 0x3e, 0x14, 0xbe,
  0xa0, 0x4e, 0x58, 0xbe, 0x2d, 0xf5, 0x22, 0xbe, 0x43, 0x40, 0x0c, 0xbe,
  0x6b, 0xf4, 0x6c, 0xbd, 0x17, 0x2c, 0xf5, 0x3c, 0xc4, 0xa4, 0x87, 0x3e,
  0x18, 0x8e, 0x58, 0x3f, 0x8d, 0x68, 0x79, 0xbd, 0xc8, 0x84, 0x57, 0xbd,
  0xa8, 0x8f, 0x67, 0x3d, 0xda, 0xbf, 0x14, 0x3f, 0xfc, 0x62, 0x81, 0xbd,
  0xe5, 0x27, 0x05, 0xbe, 0x89, 0xff, 0x13, 0x3e, 0x10, 0x22, 0x62, 0x3e,
  0x8d, 0x00, 0x89, 0x3d, 0xad, 0x90, 0xae, 0xbe, 0xcf, 0xdf, 0x3e, 0xbe,
  0xf9, 0xfc, 0x2a, 0x3d, 0x02, 0x15, 0x31, 0xbe, 0xc3, 0xc2, 0x49, 0xbe,
  0xc5, 0x21, 0xce, 0x3c, 0xea, 0x0e, 0x75, 0x3f, 0x03, 0xfc, 0x75, 0x3e,
  0x24, 0x64, 0xd8, 0x3d, 0x4f, 0x9a, 0x6a, 0x3d, 0x18, 0x30, 0xe3, 0x3e,
  0xb2, 0x72, 0x22, 0xbe, 0x82, 0x46, 0x42, 0xbe, 0xe9, 0xb9, 0x48, 0xbe,
  0xef, 0xd3, 0xb5, 0x3d, 0x7e, 0x24, 0x2e, 0xbe, 0x83, 0xf5, 0x9e, 0xbe,
  0x5d, 0xf6, 0x60, 0xbe, 0x22, 0xd4, 0x6a, 0x3d, 0x9e, 0xf3, 0x06, 0xbe,
  0x57, 0xf9, 0x71, 0x3d, 0x31, 0x24, 0x95, 0x3d, 0x01, 0xe4, 0x57, 0x3f,
  0xc5, 0x9f, 0x13, 0xbc, 0x72, 0xdc, 0x42, 0xbe, 0x6b, 0x05, 0x59, 0x3c,
  0x57, 0x79, 0xc4, 0x3e, 0x4a, 0x78, 0x42, 0xbe, 0xe4, 0xd3, 0x7d, 0xbe,
  0x86, 0xcf, 0x8a, 0xbc, 0xde, 0x24, 0x1b, 0x3e, 0xba, 0xb2, 0x1e, 0x3d,
  0x7c, 0x77, 0x98, 0xbe, 0xf6, 0xa3, 0x65, 0x3d, 0xa8, 0xa4, 0xf3, 0xbc,
  0xa8, 0xcd, 0x64, 0x3d, 0xfd, 0x5b, 0x59, 0xbe, 0x99, 0x53, 0x07, 0x3e,
  0x5f, 0x5e, 0x36, 0x3f, 0x10, 0x1d, 0xc0, 0xbd, 0x7e, 0x13, 0x29, 0x3d,
  0x7a, 0x7f, 0xac, 0xbe, 0x5e, 0x87, 0x30, 0x3f, 0x64, 0x7f, 0x0c, 0xbe,
  0xdc, 0xa9, 0x75, 0xbd, 0xac, 0x5f, 0x31, 0x3e, 0x3f, 0xb0, 0xe9, 0x3c,
  0x91, 0xcc, 0x3b, 0xbe, 0xb5, 0xdb, 0x5b, 0xbe, 0x19, 0xe1, 0xc7, 0xbc,
  0x37, 0xd4, 0x63, 0xbe, 0xdb, 0x9d, 0x7c, 0x3e, 0xf1, 0xcc, 0xd4, 0xbd,
  0x97, 0x0e, 0x70, 0xbc, 0x6c, 0x53, 0x22, 0x3f, 0x84, 0x54, 0x0d, 0xbc,
  0x2b, 0x3e, 0xb9, 0xbc, 0xbe, 0x7b, 0x8b, 0xbe, 0x50, 0xd0, 0x2e, 0x3f,
  0x22, 0x75, 0xfe, 0xbd, 0xa4, 0x31, 0x65, 0xbe, 0xf9, 0xe1, 0x59, 0xbe,
  0x59, 0x60, 0x88, 0x3c, 0x79, 0xc1, 0x84, 0xbe, 0x58, 0x48, 0x9c, 0xbe,
  0xaa, 0x8a, 0x91, 0xbd, 0x0f, 0x26, 0xca, 0xbd, 0x0e, 0x0b, 0x03, 0xbd,
  0x48, 0xee, 0x40, 0xbe, 0x74, 0x80, 0xab, 0x3d, 0x77, 0x1e, 0x4e, 0x3f,
  0x86, 0x2f, 0xbc, 0x3d, 0xa0, 0xb4, 0x95, 0xbe, 0x9d, 0xc6, 0x5f, 0xbd,
  0xee, 0x94, 0xce, 0x3e, 0x9c, 0xfd, 0x52, 0xbe, 0xee, 0xbf, 0xde, 0x3d,
  0xfe, 0x77, 0xbb, 0x3e, 0x5d, 0x8c, 0x0e, 0xbd, 0xff, 0x69, 0x92, 0x3e,
  0x6d, 0x4f, 0xc3, 0x3d, 0xa1, 0x2a, 0x97, 0x3e, 0xd7, 0xb7, 0x37, 0xbe,
  0xd8, 0xb9, 0x0d, 0xbe, 0x6c, 0x0d, 0xb6, 0xbd, 0x3c, 0xf0, 0x71, 0xbd,
  0x26, 0x70, 0x0a, 0xbc, 0xfb, 0x50, 0xf6, 0xbe, 0xc7, 0xa1, 0x65, 0x3e,
  0x0c, 0xd7, 0x6c, 0xbe, 0xf6, 0xaf, 0x06, 0xbe, 0xe5, 0x90, 0x12, 0x3e,
  0x21, 0x04, 0xcc, 0xbe, 0x42, 0x2e, 0x84, 0x3d, 0x63, 0x04, 0x66, 0xbe,
  0xf9, 0x02, 0x09, 0xbe, 0x06, 0x19, 0x55, 0xbd, 0xba, 0x3c, 0x50, 0xbe,
  0xd4, 0x77, 0xa4, 0xbd, 0x3c, 0xe0, 0x7d, 0xbe, 0x6d, 0x1a, 0x49, 0xbd,
  0x4b, 0x33, 0xd3, 0x3d, 0xbb, 0x35, 0x8d, 0xbd, 0xd7, 0xb5, 0x0e, 0xbe,
  0x3c, 0x77, 0x9c, 0xbe, 0x71, 0x9e, 0x61, 0xbe, 0xa7, 0x3e, 0x83, 0x3e,
  0x7b, 0x9b, 0xe3, 0xbe, 0x5f, 0x84, 0x11, 0xbf, 0x28, 0x15, 0x86, 0xbd,
  0x93, 0x93, 0xfc, 0xbe, 0x1c, 0x29, 0x99, 0xbd, 0x1c, 0x58, 0x7f, 0xbd,
  0x13, 0x44, 0xcc, 0xbd, 0xa0, 0x8b, 0x1a, 0x3c, 0xf3, 0xe0, 0x8d, 0xbe,
  0x3e, 0x50, 0x02, 0xbe, 0xaf, 0x23, 0x8e, 0xbc, 0x6b, 0xd1, 0x91, 0xbd,
  0x83, 0x84, 0x12, 0xbf, 0x00, 0xf8, 0x2d, 0xbe, 0xbf, 0x58, 0x9d, 0x3d,
  0x28, 0xcd, 0xb8, 0xbc, 0xe2, 0x56, 0xc4, 0xbe, 0x6f, 0xdf, 0x36, 0xbf,
  0x96, 0xc7, 0x5f, 0xbe, 0xb5, 0xde, 0x28, 0xbf, 0x06, 0x55, 0x2f, 0xbe,
  0x64, 0x5a, 0xa4, 0xbd, 0x6c, 0xa9, 0x64, 0xbe, 0xee, 0x48, 0x57, 0x3d,
  0x9a, 0xa1, 0x72, 0xbe, 0xff, 0x95, 0xc7, 0xbe, 0xb3, 0xfa, 0xf4, 0x3c,
  0x1b, 0xae, 0x44, 0xbe, 0x32, 0x26, 0x24, 0xbe, 0x2d, 0xcc, 0x0f, 0xbe,
  0xed, 0xaf, 0x00, 0xbd, 0x6c, 0xe5, 0xe2, 0x3d, 0x1c, 0xaf, 0xa3, 0xbe,
  0x7b, 0xec, 0x03, 0xbe, 0x46, 0xef, 0x29, 0xbe, 0xf8, 0xb4, 0xe4, 0xbd,
  0x22, 0x41, 0x4e, 0x3c, 0x4c, 0x23, 0xc3, 0xbb, 0xf7, 0xcd, 0xc8, 0xbe,
  0xfa, 0x1d, 0x29, 0xbe, 0x3f, 0x15, 0x88, 0xbd, 0x2e, 0xf9, 0x96, 0xbe,
  0x9c, 0x6e, 0xe3, 0xbd, 0x0e, 0xd3, 0xab, 0x3a, 0x74, 0xf1, 0x6e, 0xbe,
  0x21, 0x69, 0xa6, 0xbd, 0x9f, 0x9f, 0xd8, 0x3d, 0xf2, 0x7d, 0x78, 0x3e,
  0xc1, 0x1d, 0xbf, 0xbe, 0xf1, 0x73, 0x4c, 0x3d, 0xbf, 0xa5, 0xcb, 0x3e,
  0x6f, 0x04, 0xad, 0xbc, 0x7c, 0xc4, 0xc3, 0x3e, 0xd8, 0x8d, 0xfa, 0x3b,
  0x16, 0x54, 0x05, 0x3e, 0x0c, 0x64, 0x0b, 0xbe, 0xb9, 0xdd, 0xf3, 0xbc,
  0xa8, 0xf9, 0x12, 0xbe, 0x8d, 0xd4, 0x8e, 0xba, 0xb1, 0x65, 0xfa, 0x3e,
  0x01, 0x03, 0x9c, 0xbe, 0xbf, 0x50, 0x41, 0x3e, 0x46, 0xab, 0xae, 0x3d,
  0x5a, 0x34, 0x07, 0x3e, 0xf4, 0xd7, 0x2d, 0x3e, 0x92, 0x1f, 0xa3, 0x3d,
  0xe5, 0x6a, 0x03, 0x3e, 0xc5, 0x4d, 0xc4, 0x3d, 0x7f, 0xd0, 0xf9, 0x3d,
  0x20, 0xf5, 0x6d, 0x3d, 0xc3, 0x35, 0x35, 0x3e, 0xcb, 0x13, 0x47, 0xbc,
  0xfa, 0x2d, 0x38, 0xbe, 0x3f, 0x5a, 0xd3, 0xbc, 0x29, 0x4c, 0x5b, 0xbc,
  0xc3, 0x76, 0x81, 0x3e, 0x2e, 0xa5, 0x42, 0xbe, 0xa1, 0x7a, 0xa5, 0xbd,
  0x59, 0xfb, 0x95, 0x3e, 0x0f, 0xc8, 0xd1, 0x3c, 0x0d, 0x34, 0x1f, 0xbc,
  0xd8, 0x1d, 0x0b, 0xbe, 0x6f, 0xb5, 0xb5, 0x3b, 0x9c, 0x59, 0x8f, 0xbb,
  0xae, 0xc0, 0xaf, 0xbc, 0x73, 0xe4, 0x35, 0xbd, 0x26, 0x9c, 0xb5, 0x3c,
  0x1f, 0x4d, 0x7b, 0x3c, 0x96, 0x0f, 0x15, 0x3d, 0xe7, 0x3c, 0x59, 0x3d,
  0x42, 0x22, 0xb9, 0x3d, 0xd0, 0x5a, 0x0f, 0xbe, 0x1e, 0x00, 0x5e, 0x3f,
  0x7f, 0xa5, 0xff, 0xbc, 0x6d, 0xfd, 0x7f, 0xbe, 0x02, 0xd9, 0xc1, 0x3b,
  0x5c, 0x65, 0xc8, 0x3d, 0x2c, 0xe7, 0xde, 0xbd, 0x9b, 0xb4, 0xd0, 0x3d,
  0xe7, 0x5c, 0x55, 0x3e, 0x91, 0xea, 0x01, 0x3d, 0xfd, 0xf2, 0x39, 0xbe,
  0xd7, 0x5d, 0x1f, 0xbb, 0x44, 0x0d, 0x16, 0xbe, 0xbf, 0xe3, 0x1b, 0xbe,
  0x18, 0x9a, 0x1b, 0x3d, 0xb8, 0xd6, 0x88, 0x3e, 0x3b, 0x21, 0x9b, 0xbe,
  0x44, 0x64, 0x58, 0x3f, 0xe4, 0x5d, 0xc4, 0x3d, 0xdd, 0xc7, 0x1a, 0xbc,
  0xd9, 0x7f, 0x78, 0xbd, 0x66, 0x3d, 0xbc, 0x3e, 0xae, 0xe0, 0xfa, 0xbd,
  0x73, 0x1a, 0x72, 0x3e, 0x48, 0x15, 0x99, 0x3c, 0xfc, 0x34, 0xdf, 0x3e,
  0x6a, 0x49, 0xd9, 0xbc, 0x0e, 0x5f, 0x94, 0x3e, 0xf0, 0x9f, 0x59, 0x3e,
  0xa5, 0x8a, 0x7b, 0x3e, 0x93, 0x02, 0x15, 0xbd, 0xf8, 0xa2, 0x81, 0x3e,
  0x12, 0x26, 0xed, 0xbd, 0x76, 0x4a, 0x66, 0x3f, 0xc9, 0xf5, 0x4e, 0x3e,
  0xa8, 0x21, 0xf5, 0x3c, 0x57, 0x59, 0x93, 0xbe, 0x80, 0x1f, 0x48, 0x3e,
  0x8d, 0x83, 0xc5, 0xbd, 0xe3, 0xdf, 0x82, 0x3e, 0x4b, 0x52, 0xa0, 0xbd,
  0xca, 0xf9, 0x54, 0x3e, 0x74, 0x0c, 0x58, 0xbe, 0xe3, 0xf1, 0x35, 0x3e,
  0xd4, 0x5b, 0x3f, 0x3d, 0xc7, 0x79, 0xab, 0x3e, 0x5a, 0x00, 0x91, 0x3e,
  0x0f, 0x22, 0xc5, 0x3a, 0xdc, 0x1b, 0x79, 0x3e, 0x26, 0x90, 0x02, 0x3f,
  0x02, 0x0a, 0x71, 0x3e, 0xba, 0x52, 0x04, 0xbd, 0x36, 0xe5, 0xe1, 0x3d,
  0xd8, 0x19, 0x13, 0x3f, 0x8e, 0x71, 0x44, 0x3c, 0x56, 0xa2, 0x6f, 0x3d,
  0x3f, 0x4d, 0x06, 0x3e, 0x91, 0xe4, 0x26, 0x3d, 0x92, 0xa5, 0xd3, 0xbd,
  0xc4, 0x20, 0x59, 0x3e, 0x92, 0xa9, 0x69, 0x3e, 0x80, 0xa3, 0x2f, 0x3d,
  0x17, 0x6e, 0x0e, 0xbe, 0xe0, 0x60, 0xec, 0x3d, 0x24, 0x9b, 0x03, 0x3e,
  0x42, 0xe1, 0x8e, 0x3f, 0xaf, 0x59, 0x5c, 0xbe, 0x5b, 0xc4, 0x6f, 0xbe,
  0xc9, 0x2d, 0xfe, 0x3c, 0x68, 0x76, 0xb3, 0x3d, 0x1e, 0xd5, 0xc0, 0x3d,
  0x70, 0x27, 0xc8, 0x3d, 0x88, 0x38, 0x67, 0xbe, 0x29, 0x81, 0x03, 0x3e,
  0x6a, 0xd2, 0xd1, 0xbe, 0xea, 0x72, 0x50, 0x3e, 0xb1, 0xb9, 0x38, 0xbd,
  0xcc, 0x1a, 0xaa, 0xbc, 0x6c, 0xe8, 0x58, 0x3d, 0x08, 0x3a, 0x04, 0xbe,
  0xd0, 0xd9, 0x09, 0x3d, 0x7a, 0x2a, 0x50, 0x3f, 0x18, 0xfe, 0x50, 0x3e,
  0xc5, 0xf1, 0x37, 0xbd, 0x09, 0x7b, 0x70, 0xbd, 0x13, 0x88, 0xff, 0x3d,
  0xa7, 0x36, 0x1a, 0xbd, 0xed, 0xbd, 0xdb, 0xbd, 0xe0, 0xf0, 0x8b, 0xbe,
  0x3b, 0xd7, 0xa9, 0xbd, 0xbb, 0x1d, 0x9d, 0xbe, 0x3b, 0xef, 0x1a, 0x3e,
  0x49, 0xe4, 0x81, 0xbe, 0x6f, 0xd5, 0x2f, 0xbd, 0x71, 0xac, 0x2e, 0xbe,
  0xfe, 0xc1, 0xbb, 0x3d, 0x0e, 0xb3, 0x03, 0xbe, 0x6f, 0xfb, 0x8b, 0x3f,
  0xe9, 0xa5, 0x27, 0xbe, 0x61, 0xff, 0x01, 0xbd, 0x79, 0xe3, 0x6a, 0x3e,
  0x91, 0x14, 0xa8, 0x3d, 0x5b, 0x37, 0x70, 0x3d, 0x21, 0x31, 0x65, 0x3e,
  0x49, 0x64, 0x53, 0x3d, 0x0d, 0xa6, 0x40, 0x3e, 0xca, 0xbf, 0x98, 0x3d,
  0x5f, 0xac, 0x25, 0x3e, 0x31, 0xa0, 0xaf, 0xbd, 0x37, 0xcb, 0xb3, 0xbe,
  0x43, 0x6d, 0x8c, 0xbd, 0x96, 0x28, 0x7f, 0xbe, 0x80, 0x67, 0x59, 0x3c,
  0x08, 0x12, 0x91, 0xbd, 0x2b, 0x34, 0x9c, 0x3e, 0xb7, 0x4d, 0x2f, 0xbe,
  0xbf, 0x57, 0xfb, 0xbd, 0xbe, 0x0f, 0xa7, 0x3c, 0x3a, 0x6c, 0x69, 0xbd,
  0xc5, 0x1a, 0x03, 0x3e, 0x7a, 0xa4, 0x93, 0xbd, 0xea, 0x3b, 0xbd, 0x3e,
  0x88, 0x55, 0x13, 0x3e, 0x83, 0x2d, 0x4b, 0x3d, 0x8a, 0xdf, 0xca, 0xbc,
  0x04, 0x09, 0x0f, 0xbd, 0x88, 0x5c, 0x86, 0x3d, 0xdf, 0x20, 0xe8, 0xbd,
  0xfc, 0x05, 0x87, 0x3e, 0x71, 0x58, 0x9b, 0xbe, 0x3a, 0x51, 0x16, 0xbc,
  0x0c, 0x17, 0x0d, 0xbe, 0x03, 0x82, 0x2a, 0x3e, 0xd0, 0x77, 0x8e, 0xbe,
  0xbf, 0x5b, 0xf2, 0xbe, 0x97, 0xc1, 0x03, 0x3e, 0x2b, 0x89, 0xe6, 0xbe,
  0xb9, 0xd7, 0x15, 0xbe, 0xdb, 0xad, 0x98, 0xbb, 0xe5, 0xc6, 0xa3, 0xbe,
  0xb0, 0x79, 0x45, 0x3e, 0x63, 0x08, 0xa6, 0x3d, 0x09, 0x95, 0x82, 0x3c,
  0x8f, 0x60, 0x7c, 0xbd, 0x0c, 0x3a, 0x9f, 0x3e, 0x98, 0x34, 0x67, 0xbe,
  0xcb, 0xc1, 0xc5, 0xbd, 0xca, 0x3e, 0xd2, 0x3d, 0xaa, 0x63, 0x37, 0x3e,
  0xce, 0x21, 0xf9, 0xbe, 0x21, 0x22, 0x1a, 0xbf, 0x53, 0xaf, 0x92, 0x3b,
  0x86, 0x48, 0xfe, 0xbe, 0xcf, 0xdf, 0xdb, 0xbd, 0x53, 0x6b, 0xd8, 0x3c,
  0xc0, 0x3b, 0x35, 0xbe, 0x41, 0x56, 0x36, 0x3b, 0x1e, 0xbc, 0x5b, 0xbe,
  0x57, 0xc7, 0x82, 0xbe, 0xca, 0xec, 0x80, 0x3d, 0xd3, 0x9d, 0x00, 0x3f,
  0x28, 0xf4, 0xa7, 0xbe, 0x49, 0x0d, 0xef, 0xbd, 0x56, 0x77, 0x09, 0x3e,
  0xea, 0x2f, 0xf5, 0x3b, 0x57, 0xe7, 0xb8, 0xbe, 0xb2, 0xd4, 0xe6, 0xbe,
  0x1e, 0xdd, 0xbe, 0xbd, 0xf6, 0x71, 0x2b, 0x3d, 0xa4, 0x93, 0x2c, 0xbe,
  0x7c, 0xee, 0xfa, 0xbb, 0x6f, 0xa0, 0x2d, 0xbb, 0x6d, 0x16, 0x1c, 0xbe,
  0xff, 0x15, 0xf5, 0xbd, 0x72, 0xdf, 0x89, 0xbe, 0x1f, 0x94, 0x99, 0xbd,
  0xd8, 0x93, 0xcd, 0x3e, 0x41, 0x6e, 0x44, 0xbe, 0x9f, 0x17, 0x22, 0xbe,
  0xab, 0xc9, 0xd2, 0xbc, 0x35, 0x67, 0xa1, 0x3c, 0x81, 0xe0, 0x1d, 0xbe,
  0xc3, 0x02, 0x54, 0x3d, 0x65, 0xc7, 0xfa, 0x3d, 0xb7, 0x98, 0xba, 0xbd,
  0x0d, 0xe3, 0xac, 0x3e, 0x80, 0xba, 0x14, 0xbc, 0x93, 0x98, 0x8d, 0x3d,
  0x43, 0xcc, 0xee, 0xbd, 0xcd, 0x91, 0x02, 0x3e, 0xd9, 0x2e, 0x22, 0xbe,
  0x55, 0x5a, 0x92, 0xbd, 0x40, 0x72, 0x8c, 0x3e, 0x42, 0xca, 0x00, 0xbe,
  0x37, 0xe6, 0x9b, 0x3d, 0x07, 0x8c, 0xb0, 0x3d, 0x3f, 0xee, 0x7c, 0x3d,
  0x43, 0xef, 0xf7, 0xbd, 0x81, 0x57, 0x1d, 0xbe, 0x82, 0x73, 0x29, 0x3d,
  0xc0, 0xc6, 0xd2, 0xbd, 0x70, 0xb9, 0x0e, 0xbe, 0xb5, 0x8b, 0xcd, 0xbd,
  0x16, 0xe9, 0xa4, 0xbd, 0xfe, 0x71, 0x5b, 0xbd, 0xc4, 0x9e, 0x89, 0xbe,
  0xcf, 0x70, 0x24, 0xbe, 0x46, 0x9b, 0xbd, 0xbd, 0x20, 0x4e, 0xf7, 0x3d,
  0xc5, 0x82, 0x36, 0xbe, 0x6a, 0x44, 0xff, 0xbd, 0x8e, 0xc9, 0xbe, 0xbd,
  0x5f, 0xd2, 0xac, 0x3c, 0x34, 0x59, 0x21, 0xbe, 0x6c, 0xc1, 0x52, 0x3b,
  0x4f, 0xb2, 0x91, 0xbe, 0x81, 0x38, 0xa3, 0x3c, 0x8f, 0x87, 0x1d, 0xbe,
  0xc7, 0xdf, 0xa4, 0x3d, 0x84, 0xff, 0xe5, 0xbd, 0xeb, 0xf5, 0x14, 0x3e,
  0xd4, 0xe1, 0xc6, 0x3e, 0x2c, 0x09, 0x80, 0x3e, 0xab, 0xb3, 0x47, 0xbd,
  0xef, 0x62, 0x0d, 0xbf, 0x28, 0x1a, 0xbf, 0xbc, 0x9a, 0xbc, 0x01, 0xbe,
  0x58, 0xc5, 0x90, 0xbe, 0xbb, 0x46, 0xcd, 0xbd, 0xb5, 0x67, 0x87, 0xbe,
  0xba, 0xf1, 0x84, 0x3e, 0x81, 0x8c, 0x20, 0x3c, 0x6d, 0x28, 0x69, 0xbe,
  0x1c, 0xa4, 0x7b, 0x3d, 0x76, 0x25, 0xe0, 0xbc, 0xe3, 0x18, 0x7b, 0xbe,
  0xe6, 0xfc, 0x74, 0x3d, 0xbf, 0x1f, 0x85, 0x3e, 0xec, 0xe4, 0x95, 0x3d,
  0xa9, 0x99, 0x68, 0xbe, 0x51, 0x55, 0x9d, 0xbc, 0x13, 0x45, 0x46, 0xbe,
  0x1b, 0xdc, 0xb9, 0x3d, 0xe9, 0x7f, 0x7e, 0x3d, 0x07, 0xf9, 0xa6, 0xbe,
  0x2a, 0x10, 0x19, 0xbd, 0x19, 0x4c, 0x07, 0x3f, 0xf9, 0xbb, 0x9d, 0x3e,
  0x9f, 0xeb, 0x6c, 0x3e, 0xb0, 0xf3, 0x74, 0xbd, 0x3b, 0x13, 0xc5, 0xbc,
  0xe8, 0xf9, 0xc8, 0xbe, 0x3e, 0x8c, 0x45, 0xbe, 0xf9, 0x09, 0xa1, 0x3e,
  0xc3, 0xb0, 0x45, 0x3e, 0x07, 0xca, 0x01, 0xbf, 0x1c, 0x71, 0x39, 0xbd,
  0xf6, 0x3a, 0x96, 0xbe, 0x34, 0xe0, 0xd7, 0x3d, 0xc1, 0x3f, 0x3f, 0x3e,
  0x67, 0xcf, 0xbf, 0xbd, 0x98, 0x2d, 0x28, 0x3a, 0x92, 0xc6, 0x05, 0x3f,
  0xae, 0x4b, 0xe8, 0xba, 0xdc, 0xa8, 0xfc, 0x3d, 0xc8, 0x44, 0xaa, 0xbd,
  0xd2, 0x26, 0x52, 0xba, 0x8a, 0xb5, 0x91, 0xbe, 0x1c, 0xd4, 0x36, 0xba,
  0x5b, 0x9a, 0x8c, 0x3e, 0x91, 0x3e, 0x91, 0x3d, 0x35, 0x28, 0x58, 0xbe,
  0x45, 0x38, 0x47, 0xbd, 0xa2, 0x89, 0xff, 0xbd, 0xb1, 0xd1, 0x67, 0xbe,
  0x5d, 0x66, 0x0f, 0x3e, 0x31, 0xc5, 0x69, 0xbd, 0x61, 0xf6, 0x5e, 0xbe,
  0xdc, 0x09, 0x8a, 0x3e, 0xb0, 0xde, 0x49, 0xbe, 0x73, 0x37, 0x30, 0x3d,
  0x15, 0x8f, 0x00, 0xbe, 0x76, 0xfb, 0x3b, 0xbc, 0xbc, 0x4c, 0x54, 0xbe,
  0xbb, 0xdd, 0x0a, 0xbe, 0x3e, 0x95, 0x03, 0x3f, 0x65, 0x3e, 0x09, 0x3e,
  0x2c, 0x5c, 0x2a, 0xbe, 0x32, 0xb3, 0x6e, 0xbe, 0xf2, 0x2f, 0xc8, 0xbd,
  0x14, 0x91, 0x76, 0xbe, 0xff, 0x54, 0x08, 0xbf, 0xae, 0x72, 0x95, 0xbe,
  0x8b, 0x1c, 0xba, 0xbe, 0xed, 0x8d, 0x62, 0x3e, 0x7f, 0x9b, 0x9f, 0xbe,
  0x69, 0x4e, 0x21, 0x3e, 0xba, 0x01, 0x99, 0xbe, 0xcd, 0x0b, 0xd0, 0xbc,
  0x0f, 0x9f, 0x90, 0xbe, 0xe5, 0xb2, 0x42, 0x3d, 0x1d, 0xa8, 0x46, 0x3e,
  0x99, 0x6c, 0x15, 0x3e, 0x44, 0xe3, 0x28, 0xbe, 0xbd, 0x44, 0xf4, 0xbe,
  0xd7, 0xb3, 0x14, 0xbe, 0x77, 0x91, 0xbb, 0xbe, 0x40, 0x83, 0xae, 0xbe,
  0xe5, 0x77, 0x4a, 0x3d, 0xd1, 0xc7, 0x8c, 0xbe, 0xf3, 0x04, 0xc2, 0x3d,
  0xd2, 0x95, 0x82, 0xbe, 0xae, 0x1b, 0x91, 0x3e, 0xaf, 0x73, 0x54, 0xbe,
  0x69, 0xbd, 0xbd, 0xbc, 0x7f, 0xf6, 0x72, 0xbd, 0xb8, 0x30, 0x99, 0x3d,
  0x21, 0x32, 0x9b, 0x3e, 0x3b, 0x85, 0x2b, 0xbd, 0x9f, 0x13, 0x4e, 0xbc,
  0x1e, 0x67, 0x99, 0xbe, 0xb7, 0x7a, 0x26, 0x3d, 0x60, 0x44, 0x00, 0x3e,
  0x30, 0x1c, 0xc9, 0xbd, 0x41, 0x14, 0x41, 0x3d, 0x9d, 0x45, 0x3b, 0xbd,
  0x66, 0xfd, 0xff, 0xff, 0x10, 0x00, 0x00, 0x00, 0x07, 0x00, 0x00, 0x00,
  0x14, 0x00, 0x00, 0x00, 0x2c, 0x00, 0x00, 0x00, 0x02, 0x00, 0x00, 0x00,
  0x10, 0x00, 0x00, 0x00, 0x70, 0x00, 0x00, 0x00, 0x17, 0x00, 0x00, 0x00,
  0x73, 0x65, 0x71, 0x75, 0x65, 0x6e, 0x74, 0x69, 0x61, 0x6c, 0x2f, 0x64,
  0x65, 0x6e, 0x73, 0x65, 0x2f, 0x4d, 0x61, 0x74, 0x4d, 0x75, 0x6c, 0x00,
  0xd0, 0xfc, 0xff, 0xff, 0xda, 0xfd, 0xff, 0xff, 0x04, 0x00, 0x00, 0x00,
  0x08, 0x00, 0x00, 0x00, 0xff, 0xff, 0xff, 0xff, 0x70, 0x00, 0x00, 0x00,
  0x00, 0x00, 0x0e, 0x00, 0x18, 0x00, 0x08, 0x00, 0x07, 0x00, 0x0c, 0x00,
  0x10, 0x00, 0x14, 0x00, 0x0e, 0x00, 0x00, 0x00, 0x00, 0x00, 0x00, 0x02,
  0x10, 0x00, 0x00, 0x00, 0x06, 0x00, 0x00, 0x00, 0x10, 0x00, 0x00, 0x00,
  0x2c, 0x00, 0x00, 0x00, 0x01, 0x00, 0x00, 0x00, 0x02, 0x00, 0x00, 0x00,
  0x18, 0x00, 0x00, 0x00, 0x73, 0x65, 0x71, 0x75, 0x65, 0x6e, 0x74, 0x69,
  0x61, 0x6c, 0x2f, 0x66, 0x6c, 0x61, 0x74, 0x74, 0x65, 0x6e, 0x2f, 0x43,
  0x6f, 0x6e, 0x73, 0x74, 0x00, 0x00, 0x00, 0x00, 0x38, 0xfd, 0xff, 0xff,
  0x42, 0xfe, 0xff, 0xff, 0x04, 0x00, 0x00, 0x00, 0x0c, 0x00, 0x00, 0x00,
  0x13, 0x9a, 0xae, 0xbf, 0xb0, 0x00, 0x62, 0xc0, 0x4b, 0xc8, 0x61, 0x40,
  0x26, 0xfe, 0xff, 0xff, 0x10, 0x00, 0x00, 0x00, 0x05, 0x00, 0x00, 0x00,
  0x10, 0x00, 0x00, 0x00, 0x44, 0x00, 0x00, 0x00, 0x01, 0x00, 0x00, 0x00,
  0x03, 0x00, 0x00, 0x00, 0x32, 0x00, 0x00, 0x00, 0x73, 0x65, 0x71, 0x75,
  0x65, 0x6e, 0x74, 0x69, 0x61, 0x6c, 0x2f, 0x64, 0x65, 0x6e, 0x73, 0x65,
  0x5f, 0x31, 0x2f, 0x42, 0x69, 0x61, 0x73, 0x41, 0x64, 0x64, 0x2f, 0x52,
  0x65, 0x61, 0x64, 0x56, 0x61, 0x72, 0x69, 0x61, 0x62, 0x6c, 0x65, 0x4f,
  0x70, 0x2f, 0x72, 0x65, 0x73, 0x6f, 0x75, 0x72, 0x63, 0x65, 0x00, 0x00,
  0xa8, 0xfd, 0xff, 0xff, 0xb2, 0xfe, 0xff, 0xff, 0x04, 0x00, 0x00, 0x00,
  0x40, 0x00, 0x00, 0x00, 0x7b, 0x6b, 0x08, 0x40, 0xfb, 0x59, 0x64, 0xbf,
  0xf1, 0xb5, 0x47, 0xbe, 0x6f, 0x99, 0x78, 0xbf, 0x9f, 0xad, 0x67, 0xbf,
  0x86, 0xb5, 0x64, 0x3f, 0x83, 0x0f, 0xcf, 0xbf, 0xb0, 0xd6, 0x60, 0x40,
  0x34, 0x89, 0x40, 0xbe, 0x46, 0x9b, 0x01, 0xbd, 0x91, 0x32, 0x6e, 0xbf,
  0xe0, 0xe3, 0x8d, 0x3e, 0x1a, 0x08, 0x81, 0xbf, 0x6b, 0x2b, 0x76, 0xbe,
  0x54, 0xd0, 0x56, 0xbf, 0x3f, 0xb0, 0x46, 0xbf, 0xca, 0xfe, 0xff, 0xff,
  0x10, 0x00, 0x00, 0x00, 0x04, 0x00, 0x00, 0x00, 0x10, 0x00, 0x00, 0x00,
  0x44, 0x00, 0x00, 0x00, 0x01, 0x00, 0x00, 0x00, 0x10, 0x00, 0x00, 0x00,
  0x30, 0x00, 0x00, 0x00, 0x73, 0x65, 0x71, 0x75, 0x65, 0x6e, 0x74, 0x69,
  0x61, 0x6c, 0x2f, 0x64, 0x65, 0x6e, 0x73, 0x65, 0x2f, 0x42, 0x69, 0x61,
  0x73, 0x41, 0x64, 0x64, 0x2f, 0x52, 0x65, 0x61, 0x64, 0x56, 0x61, 0x72,
  0x69, 0x61, 0x62, 0x6c, 0x65, 0x4f, 0x70, 0x2f, 0x72, 0x65, 0x73, 0x6f,
  0x75, 0x72, 0x63, 0x65, 0x00, 0x00, 0x00, 0x00, 0x4c, 0xfe, 0xff, 0xff,
  0x56, 0xff, 0xff, 0xff, 0x04, 0x00, 0x00, 0x00, 0x40, 0x00, 0x00, 0x00,
  0xb1, 0x61, 0xd0, 0xbf, 0xcf, 0x95, 0x70, 0xbf, 0x9f, 0xd6, 0xf3, 0x3e,
  0x67, 0x18, 0x8e, 0xbf, 0xdb, 0x29, 0xdd, 0x3d, 0xca, 0x50, 0x5c, 0xbf,
  0x87, 0xd8, 0x02, 0xc0, 0x77, 0xda, 0x02, 0xbf, 0x0e, 0x9e, 0x9a, 0xbf,
  0x07, 0x78, 0x4d, 0xbc, 0x31, 0xe3, 0x22, 0x40, 0x75, 0x75, 0x16, 0x3d,
  0x70, 0xe1, 0x96, 0xbe, 0x88, 0x77, 0xf5, 0xbc, 0x49, 0xb6, 0xda, 0x3e,
  0x8d, 0x50, 0xdc, 0xbc, 0x6e, 0xff, 0xff, 0xff, 0x10, 0x00, 0x00, 0x00,
  0x03, 0x00, 0x00, 0x00, 0x10, 0x00, 0x00, 0x00, 0x48, 0x00, 0x00, 0x00,
  0x01, 0x00, 0x00, 0x00, 0x10, 0x00, 0x00, 0x00, 0x33, 0x00, 0x00, 0x00,
  0x73, 0x65, 0x71, 0x75, 0x65, 0x6e, 0x74, 0x69, 0x61, 0x6c, 0x2f, 0x63,
  0x6f, 0x6e, 0x76, 0x32, 0x64, 0x5f, 0x31, 0x2f, 0x42, 0x69, 0x61, 0x73,
  0x41, 0x64, 0x64, 0x2f, 0x52, 0x65, 0x61, 0x64, 0x56, 0x61, 0x72, 0x69,
  0x61, 0x62, 0x6c, 0x65, 0x4f, 0x70, 0x2f, 0x72, 0x65, 0x73, 0x6f, 0x75,
  0x72, 0x63, 0x65, 0x00, 0x04, 0x00, 0x06, 0x00, 0x04, 0x00, 0x00, 0x00,
  0x00, 0x00, 0x06, 0x00, 0x08, 0x00, 0x04, 0x00, 0x06, 0x00, 0x00, 0x00,
  0x04, 0x00, 0x00, 0x00, 0x20, 0x00, 0x00, 0x00, 0x54, 0x29, 0x11, 0xc0,
  0x83, 0x9f, 0x93, 0xbf, 0x2d, 0x8f, 0x0a, 0xc0, 0xb4, 0x5a, 0xbf, 0xbf,
  0x75, 0x55, 0x6b, 0xbf, 0x3c, 0x4a, 0x40, 0xc0, 0x2c, 0xb1, 0x38, 0xc0,
  0x80, 0xa7, 0xf1, 0xbe, 0x00, 0x00, 0x0e, 0x00, 0x14, 0x00, 0x04, 0x00,
  0x00, 0x00, 0x08, 0x00, 0x0c, 0x00, 0x10, 0x00, 0x0e, 0x00, 0x00, 0x00,
  0x10, 0x00, 0x00, 0x00, 0x02, 0x00, 0x00, 0x00, 0x10, 0x00, 0x00, 0x00,
  0x44, 0x00, 0x00, 0x00, 0x01, 0x00, 0x00, 0x00, 0x08, 0x00, 0x00, 0x00,
  0x31, 0x00, 0x00, 0x00, 0x73, 0x65, 0x71, 0x75, 0x65, 0x6e, 0x74, 0x69,
  0x61, 0x6c, 0x2f, 0x63, 0x6f, 0x6e, 0x76, 0x32, 0x64, 0x2f, 0x42, 0x69,
  0x61, 0x73, 0x41, 0x64, 0x64, 0x2f, 0x52, 0x65, 0x61, 0x64, 0x56, 0x61,
  0x72, 0x69, 0x61, 0x62, 0x6c, 0x65, 0x4f, 0x70, 0x2f, 0x72, 0x65, 0x73,
  0x6f, 0x75, 0x72, 0x63, 0x65, 0x00, 0x00, 0x00, 0x90, 0xff, 0xff, 0xff,
  0x14, 0x00, 0x18, 0x00, 0x04, 0x00, 0x00, 0x00, 0x08, 0x00, 0x0c, 0x00,
  0x10, 0x00, 0x00, 0x00, 0x00, 0x00, 0x14, 0x00, 0x14, 0x00, 0x00, 0x00,
  0x14, 0x00, 0x00, 0x00, 0x01, 0x00, 0x00, 0x00, 0x20, 0x00, 0x00, 0x00,
  0x44, 0x00, 0x00, 0x00, 0x2c, 0x00, 0x00, 0x00, 0x04, 0x00, 0x00, 0x00,
  0x01, 0x00, 0x00, 0x00, 0x40, 0x00, 0x00, 0x00, 0x03, 0x00, 0x00, 0x00,
  0x01, 0x00, 0x00, 0x00, 0x0c, 0x00, 0x00, 0x00, 0x63, 0x6f, 0x6e, 0x76,
  0x32, 0x64, 0x5f, 0x69, 0x6e, 0x70, 0x75, 0x74, 0x00, 0x00, 0x00, 0x00,
  0x04, 0x00, 0x00, 0x00, 0xff, 0xff, 0xff, 0xff, 0x40, 0x00, 0x00, 0x00,
  0x03, 0x00, 0x00, 0x00, 0x01, 0x00, 0x00, 0x00, 0xfc, 0xff, 0xff, 0xff,
  0x04, 0x00, 0x04, 0x00, 0x04, 0x00, 0x00, 0x00// Paste the data of the char array in `src/model.cc` here
};

unsigned int model_tflite_len = 13052;// Fill the int in `src/model.cc` here