#include "magic_wand_model_data.h"

// We need to keep the data array aligned on some architectures.
#ifdef __has_attribute
#define HAVE_ATTRIBUTE(x) __has_attribute(x)
#else
#define HAVE_ATTRIBUTE(x) 0
#endif
#if HAVE_ATTRIBUTE(aligned) || (defined(__GNUC__) && !defined(__clang__))
#define DATA_ALIGN_ATTRIBUTE __attribute__((aligned(4)))
#else
#define DATA_ALIGN_ATTRIBUTE
#endif

const unsigned char g_magic_wand_model_data[] DATA_ALIGN_ATTRIBUTE = {
  0x1c, 0x00, 0x00, 0x00, 0x54, 0x46, 0x4c, 0x33, 0x14, 0x00, 0x20, 0x00,
  0x04, 0x00, 0x08, 0x00, 0x0c, 0x00, 0x10, 0x00, 0x14, 0x00, 0x00, 0x00,
  0x18, 0x00, 0x1c, 0x00, 0x14, 0x00, 0x00, 0x00, 0x03, 0x00, 0x00, 0x00,
  0x18, 0x00, 0x00, 0x00, 0x2c, 0x00, 0x00, 0x00, 0xd8, 0x00, 0x00, 0x00,
  0x2c, 0x00, 0x00, 0x00, 0x80, 0x00, 0x00, 0x00, 0x78, 0x00, 0x00, 0x00,
  0x05, 0x00, 0x00, 0x00, 0x28, 0x07, 0x00, 0x00, 0x44, 0x06, 0x00, 0x00,
  0xbc, 0x03, 0x00, 0x00, 0xf8, 0x02, 0x00, 0x00, 0xac, 0x01, 0x00, 0x00,
  0x01, 0x00, 0x00, 0x00, 0xd0, 0x00, 0x00, 0x00, 0x14, 0x00, 0x00, 0x00,
  0x98, 0x32, 0x00, 0x00, 0x94, 0x32, 0x00, 0x00, 0x8c, 0x31, 0x00, 0x00,
  0xd8, 0x30, 0x00, 0x00, 0x30, 0x30, 0x00, 0x00, 0xbc, 0x2f, 0x00, 0x00,
  0x50, 0x2f, 0x00, 0x00, 0x00, 0x13, 0x00, 0x00, 0xec, 0x11, 0x00, 0x00,
  0x10, 0x10, 0x00, 0x00, 0xb4, 0x07, 0x00, 0x00, 0x6c, 0x32, 0x00, 0x00,
  0x68, 0x32, 0x00, 0x00, 0x64, 0x32, 0x00, 0x00, 0x60, 0x32, 0x00, 0x00,
  0x5c, 0x32, 0x00, 0x00, 0x58, 0x32, 0x00, 0x00, 0x54, 0x32, 0x00, 0x00,
  0x50, 0x32, 0x00, 0x00, 0x3c, 0x00, 0x00, 0x00, 0x00, 0x00, 0x00, 0x00,
  0x01, 0x00, 0x00, 0x00, 0x0c, 0x00, 0x00, 0x00, 0x08, 0x00, 0x0c, 0x00,
  0x04, 0x00, 0x08, 0x00, 0x08, 0x00, 0x00, 0x00, 0x08, 0x00, 0x00, 0x00,
  0x13, 0x00, 0x00, 0x00, 0x13, 0x00, 0x00, 0x00, 0x6d, 0x69, 0x6e, 0x5f,
  0x72, 0x75, 0x6e, 0x74, 0x69, 0x6d, 0x65, 0x5f, 0x76, 0x65, 0x72, 0x73,
  0x69, 0x6f, 0x6e, 0x00, 0xfa, 0xce, 0xff, 0xff, 0x04, 0x00, 0x00, 0x00,
  0x10, 0x00, 0x00, 0x00, 0x31, 0x2e, 0x35, 0x2e, 0x30, 0x00, 0x00, 0x00,
  0x00, 0x00, 0x00, 0x00, 0x00, 0x00, 0x00, 0x00, 0x0f, 0x00, 0x00, 0x00,
  0x4d, 0x4c, 0x49, 0x52, 0x20, 0x43, 0x6f, 0x6e, 0x76, 0x65, 0x72, 0x74,
  0x65, 0x64, 0x2e, 0x00, 0x00, 0x00, 0x0e, 0x00, 0x18, 0x00, 0x04, 0x00,
  0x08, 0x00, 0x0c, 0x00, 0x10, 0x00, 0x14, 0x00, 0x0e, 0x00, 0x00, 0x00,
  0x14, 0x00, 0x00, 0x00, 0x5c, 0x00, 0x00, 0x00, 0x60, 0x00, 0x00, 0x00,
  0x64, 0x00, 0x00, 0x00, 0x84, 0x00, 0x00, 0x00, 0x12, 0x00, 0x00, 0x00,
  0x58, 0x31, 0x00, 0x00, 0xe8, 0x30, 0x00, 0x00, 0x44, 0x30, 0x00, 0x00,
  0x9c, 0x2f, 0x00, 0x00, 0xf4, 0x2e, 0x00, 0x00, 0x94, 0x2e, 0x00, 0x00,
  0x2c, 0x2e, 0x00, 0x00, 0xd8, 0x11, 0x00, 0x00, 0xbc, 0x10, 0x00, 0x00,
  0xe0, 0x0e, 0x00, 0x00, 0x0c, 0x06, 0x00, 0x00, 0x28, 0x05, 0x00, 0x00,
  0xe8, 0x03, 0x00, 0x00, 0x3c, 0x03, 0x00, 0x00, 0x98, 0x02, 0x00, 0x00,
  0xd4, 0x01, 0x00, 0x00, 0x10, 0x01, 0x00, 0x00, 0x84, 0x00, 0x00, 0x00,
  0x01, 0x00, 0x00, 0x00, 0x00, 0x00, 0x00, 0x00, 0x01, 0x00, 0x00, 0x00,
  0x11, 0x00, 0x00, 0x00, 0x08, 0x00, 0x00, 0x00, 0x74, 0x05, 0x00, 0x00,
  0x94, 0x04, 0x00, 0x00, 0x78, 0x03, 0x00, 0x00, 0xbc, 0x02, 0x00, 0x00,
  0x30, 0x02, 0x00, 0x00, 0x50, 0x01, 0x00, 0x00, 0xa8, 0x00, 0x00, 0x00,
  0x10, 0x00, 0x00, 0x00, 0x04, 0x00, 0x00, 0x00, 0x6d, 0x61, 0x69, 0x6e,
  0x00, 0x00, 0x00, 0x00, 0x7a, 0xff, 0xff, 0xff, 0x00, 0x00, 0x00, 0x09,
  0x04, 0x00, 0x00, 0x00, 0x1c, 0x00, 0x00, 0x00, 0x10, 0x00, 0x00, 0x00,
  0x04, 0x00, 0x00, 0x00, 0xf6, 0xcf, 0xff, 0xff, 0x00, 0x00, 0x80, 0x3f,
  0x01, 0x00, 0x00, 0x00, 0x11, 0x00, 0x00, 0x00, 0x01, 0x00, 0x00, 0x00,
  0x10, 0x00, 0x00, 0x00, 0xa0, 0xfa, 0xff, 0xff, 0x19, 0x00, 0x00, 0x00,
  0x00, 0x00, 0x00, 0x19, 0x01, 0x00, 0x00, 0x00, 0x84, 0xcf, 0xff, 0xff,
  0x14, 0x00, 0x00, 0x00, 0x12, 0x00, 0x00, 0x00, 0x18, 0x00, 0x00, 0x00,
  0x30, 0x00, 0x00, 0x00, 0x20, 0x00, 0x00, 0x00, 0x02, 0x00, 0x00, 0x00,
  0x01, 0x00, 0x00, 0x00, 0x03, 0x00, 0x00, 0x00, 0x08, 0x00, 0x00, 0x00,
  0x49, 0x64, 0x65, 0x6e, 0x74, 0x69, 0x74, 0x79, 0x00, 0x00, 0x00, 0x00,
  0x02, 0x00, 0x00, 0x00, 0xff, 0xff, 0xff, 0xff, 0x03, 0x00, 0x00, 0x00,
  0x68, 0xd0, 0xff, 0xff, 0x00, 0x00, 0x0e, 0x00, 0x18, 0x00, 0x08, 0x00,
  0x0c, 0x00, 0x10, 0x00, 0x07, 0x00, 0x14, 0x00, 0x0e, 0x00, 0x00, 0x00,
  0x00, 0x00, 0x00, 0x08, 0x03, 0x00, 0x00, 0x00, 0x18, 0x00, 0x00, 0x00,
  0x0c, 0x00, 0x00, 0x00, 0x04, 0x00, 0x00, 0x00, 0x84, 0xcf, 0xff, 0xff,
  0x01, 0x00, 0x00, 0x00, 0x10, 0x00, 0x00, 0x00, 0x03, 0x00, 0x00, 0x00,
  0x0f, 0x00, 0x00, 0x00, 0x07, 0x00, 0x00, 0x00, 0x04, 0x00, 0x00, 0x00,
  0x0c, 0xd0, 0xff, 0xff, 0x14, 0x00, 0x00, 0x00, 0x11, 0x00, 0x00, 0x00,
  0x18, 0x00, 0x00, 0x00, 0x5c, 0x00, 0x00, 0x00, 0x4c, 0x00, 0x00, 0x00,
  0x02, 0x00, 0x00, 0x00, 0x01, 0x00, 0x00, 0x00, 0x03, 0x00, 0x00, 0x00,
  0x34, 0x00, 0x00, 0x00, 0x73, 0x65, 0x71, 0x75, 0x65, 0x6e, 0x74, 0x69,
  0x61, 0x6c, 0x2f, 0x64, 0x65, 0x6e, 0x73, 0x65, 0x5f, 0x31, 0x2f, 0x4d,
  0x61, 0x74, 0x4d, 0x75, 0x6c, 0x3b, 0x73, 0x65, 0x71, 0x75, 0x65, 0x6e,
  0x74, 0x69, 0x61, 0x6c, 0x2f, 0x64, 0x65, 0x6e, 0x73, 0x65, 0x5f, 0x31,
  0x2f, 0x42, 0x69, 0x61, 0x73, 0x41, 0x64, 0x64, 0x00, 0x00, 0x00, 0x00,
  0x02, 0x00, 0x00, 0x00, 0xff, 0xff, 0xff, 0xff, 0x03, 0x00, 0x00, 0x00,
  0x0c, 0xd0, 0xff, 0xff, 0xda, 0xfc, 0xff, 0xff, 0x00, 0x00, 0x00, 0x08,
  0x03, 0x00, 0x00, 0x00, 0x24, 0x00, 0x00, 0x00, 0x18, 0x00, 0x00, 0x00,
  0x0c, 0x00, 0x00, 0x00, 0x00, 0x00, 0x06, 0x00, 0x08, 0x00, 0x07, 0x00,
  0x06, 0x00, 0x00, 0x00, 0x00, 0x00, 0x00, 0x01, 0x01, 0x00, 0x00, 0x00,
  0x0f, 0x00, 0x00, 0x00, 0x03, 0x00, 0x00, 0x00, 0x0e, 0x00, 0x00, 0x00,
  0x06, 0x00, 0x00, 0x00, 0x03, 0x00, 0x00, 0x00, 0xe8, 0xfb, 0xff, 0xff,
  0x09, 0x00, 0x00, 0x00, 0x00, 0x00, 0x00, 0x09, 0x01, 0x00, 0x00, 0x00,
  0xcc, 0xd0, 0xff, 0xff, 0x14, 0x00, 0x00, 0x00, 0x10, 0x00, 0x00, 0x00,
  0x18, 0x00, 0x00, 0x00, 0x6c, 0x00, 0x00, 0x00, 0x5c, 0x00, 0x00, 0x00,
  0x02, 0x00, 0x00, 0x00, 0x01, 0x00, 0x00, 0x00, 0x10, 0x00, 0x00, 0x00,
  0x46, 0x00, 0x00, 0x00, 0x73, 0x65, 0x71, 0x75, 0x65, 0x6e, 0x74, 0x69,
  0x61, 0x6c, 0x2f, 0x64, 0x65, 0x6e, 0x73, 0x65, 0x2f, 0x4d, 0x61, 0x74,
  0x4d, 0x75, 0x6c, 0x3b, 0x73, 0x65, 0x71, 0x75, 0x65, 0x6e, 0x74, 0x69,
  0x61, 0x6c, 0x2f, 0x64, 0x65, 0x6e, 0x73, 0x65, 0x2f, 0x52, 0x65, 0x6c,
  0x75, 0x3b, 0x73, 0x65, 0x71, 0x75, 0x65, 0x6e, 0x74, 0x69, 0x61, 0x6c,
  0x2f, 0x64, 0x65, 0x6e, 0x73, 0x65, 0x2f, 0x42, 0x69, 0x61, 0x73, 0x41,
  0x64, 0x64, 0x00, 0x00, 0x02, 0x00, 0x00, 0x00, 0xff, 0xff, 0xff, 0xff,
  0x10, 0x00, 0x00, 0x00, 0xec, 0xd1, 0xff, 0xff, 0x00, 0x00, 0x0a, 0x00,
  0x10, 0x00, 0x04, 0x00, 0x08, 0x00, 0x0c, 0x00, 0x0a, 0x00, 0x00, 0x00,
  0x02, 0x00, 0x00, 0x00, 0x10, 0x00, 0x00, 0x00, 0x04, 0x00, 0x00, 0x00,
  0x01, 0x00, 0x00, 0x00, 0x0e, 0x00, 0x00, 0x00, 0x02, 0x00, 0x00, 0x00,
  0x0d, 0x00, 0x00, 0x00, 0x05, 0x00, 0x00, 0x00, 0xa8, 0xfc, 0xff, 0xff,
  0x16, 0x00, 0x00, 0x00, 0x00, 0x00, 0x00, 0x16, 0x01, 0x00, 0x00, 0x00,
  0x8c, 0xd1, 0xff, 0xff, 0x14, 0x00, 0x00, 0x00, 0x0f, 0x00, 0x00, 0x00,
  0x18, 0x00, 0x00, 0x00, 0x40, 0x00, 0x00, 0x00, 0x30, 0x00, 0x00, 0x00,
  0x02, 0x00, 0x00, 0x00, 0x01, 0x00, 0x00, 0x00, 0x70, 0x00, 0x00, 0x00,
  0x1a, 0x00, 0x00, 0x00, 0x73, 0x65, 0x71, 0x75, 0x65, 0x6e, 0x74, 0x69,
  0x61, 0x6c, 0x2f, 0x66, 0x6c, 0x61, 0x74, 0x74, 0x65, 0x6e, 0x2f, 0x52,
  0x65, 0x73, 0x68, 0x61, 0x70, 0x65, 0x00, 0x00, 0x02, 0x00, 0x00, 0x00,
  0xff, 0xff, 0xff, 0xff, 0x70, 0x00, 0x00, 0x00, 0x70, 0xd1, 0xff, 0xff,
  0x3e, 0xfe, 0xff, 0xff, 0x00, 0x00, 0x00, 0x05, 0x01, 0x00, 0x00, 0x00,
  0x38, 0x00, 0x00, 0x00, 0x2c, 0x00, 0x00, 0x00, 0x14, 0x00, 0x00, 0x00,
  0x00, 0x00, 0x0e, 0x00, 0x14, 0x00, 0x00, 0x00, 0x10, 0x00, 0x0c, 0x00,
  0x08, 0x00, 0x04, 0x00, 0x0e, 0x00, 0x00, 0x00, 0x03, 0x00, 0x00, 0x00,
  0x01, 0x00, 0x00, 0x00, 0x03, 0x00, 0x00, 0x00, 0x01, 0x00, 0x00, 0x00,
  0x01, 0x00, 0x00, 0x00, 0x0d, 0x00, 0x00, 0x00, 0x01, 0x00, 0x00, 0x00,
  0x0c, 0x00, 0x00, 0x00, 0x2c, 0xd2, 0xff, 0xff, 0x14, 0x00, 0x00, 0x00,
  0x0e, 0x00, 0x00, 0x00, 0x20, 0x00, 0x00, 0x00, 0x58, 0x00, 0x00, 0x00,
  0x40, 0x00, 0x00, 0x00, 0x04, 0x00, 0x00, 0x00, 0x01, 0x00, 0x00, 0x00,
  0x07, 0x00, 0x00, 0x00, 0x01, 0x00, 0x00, 0x00, 0x10, 0x00, 0x00, 0x00,
  0x22, 0x00, 0x00, 0x00, 0x73, 0x65, 0x71, 0x75, 0x65, 0x6e, 0x74, 0x69,
  0x61, 0x6c, 0x2f, 0x6d, 0x61, 0x78, 0x5f, 0x70, 0x6f, 0x6f, 0x6c, 0x69,
  0x6e, 0x67, 0x32, 0x64, 0x5f, 0x31, 0x2f, 0x4d, 0x61, 0x78, 0x50, 0x6f,
  0x6f, 0x6c, 0x00, 0x00, 0x04, 0x00, 0x00, 0x00, 0xff, 0xff, 0xff, 0xff,
  0x07, 0x00, 0x00, 0x00, 0x01, 0x00, 0x00, 0x00, 0x10, 0x00, 0x00, 0x00,
  0x28, 0xd2, 0xff, 0xff, 0x1a, 0xfe, 0xff, 0xff, 0x00, 0x00, 0x00, 0x01,
  0x24, 0x00, 0x00, 0x00, 0x18, 0x00, 0x00, 0x00, 0x04, 0x00, 0x00, 0x00,
  0x0c, 0xfe, 0xff, 0xff, 0x01, 0x00, 0x00, 0x00, 0x01, 0x00, 0x00, 0x00,
  0x00, 0x00, 0x00, 0x01, 0x01, 0x00, 0x00, 0x00, 0x0c, 0x00, 0x00, 0x00,
  0x03, 0x00, 0x00, 0x00, 0x0b, 0x00, 0x00, 0x00, 0x09, 0x00, 0x00, 0x00,
  0x02, 0x00, 0x00, 0x00, 0xd4, 0xd2, 0xff, 0xff, 0x14, 0x00, 0x00, 0x00,
  0x0d, 0x00, 0x00, 0x00, 0x20, 0x00, 0x00, 0x00, 0xb8, 0x00, 0x00, 0x00,
  0xa0, 0x00, 0x00, 0x00, 0x04, 0x00, 0x00, 0x00, 0x01, 0x00, 0x00, 0x00,
  0x15, 0x00, 0x00, 0x00, 0x01, 0x00, 0x00, 0x00, 0x10, 0x00, 0x00, 0x00,
  0x83, 0x00, 0x00, 0x00, 0x73, 0x65, 0x71, 0x75, 0x65, 0x6e, 0x74, 0x69,
  0x61, 0x6c, 0x2f, 0x63, 0x6f, 0x6e, 0x76, 0x32, 0x64, 0x5f, 0x31, 0x2f,
  0x52, 0x65, 0x6c, 0x75, 0x3b, 0x73, 0x65, 0x71, 0x75, 0x65, 0x6e, 0x74,
  0x69, 0x61, 0x6c, 0x2f, 0x63, 0x6f, 0x6e, 0x76, 0x32, 0x64, 0x5f, 0x31,
  0x2f, 0x42, 0x69, 0x61, 0x73, 0x41, 0x64, 0x64, 0x3b, 0x73, 0x65, 0x71,
  0x75, 0x65, 0x6e, 0x74, 0x69, 0x61, 0x6c, 0x2f, 0x63, 0x6f, 0x6e, 0x76,
  0x32, 0x64, 0x5f, 0x31, 0x2f, 0x43, 0x6f, 0x6e, 0x76, 0x32, 0x44, 0x3b,
  0x73, 0x65, 0x71, 0x75, 0x65, 0x6e, 0x74, 0x69, 0x61, 0x6c, 0x2f, 0x63,
  0x6f, 0x6e, 0x76, 0x32, 0x64, 0x5f, 0x31, 0x2f, 0x42, 0x69, 0x61, 0x73,
  0x41, 0x64, 0x64, 0x2f, 0x52, 0x65, 0x61, 0x64, 0x56, 0x61, 0x72, 0x69,
  0x61, 0x62, 0x6c, 0x65, 0x4f, 0x70, 0x2f, 0x72, 0x65, 0x73, 0x6f, 0x75,
  0x72, 0x63, 0x65, 0x00, 0x04, 0x00, 0x00, 0x00, 0xff, 0xff, 0xff, 0xff,
  0x15, 0x00, 0x00, 0x00, 0x01, 0x00, 0x00, 0x00, 0x10, 0x00, 0x00, 0x00,
  0x40, 0xd4, 0xff, 0xff, 0x00, 0x00, 0x0e, 0x00, 0x1a, 0x00, 0x08, 0x00,
  0x0c, 0x00, 0x10, 0x00, 0x07, 0x00, 0x14, 0x00, 0x0e, 0x00, 0x00, 0x00,
  0x00, 0x00, 0x00, 0x05, 0x01, 0x00, 0x00, 0x00, 0x3c, 0x00, 0x00, 0x00,
  0x30, 0x00, 0x00, 0x00, 0x14, 0x00, 0x00, 0x00, 0x00, 0x00, 0x0e, 0x00,
  0x18, 0x00, 0x17, 0x00, 0x10, 0x00, 0x0c, 0x00, 0x08, 0x00, 0x04, 0x00,
  0x0e, 0x00, 0x00, 0x00, 0x03, 0x00, 0x00, 0x00, 0x03, 0x00, 0x00, 0x00,
  0x03, 0x00, 0x00, 0x00, 0x03, 0x00, 0x00, 0x00, 0x00, 0x00, 0x00, 0x01,
  0x01, 0x00, 0x00, 0x00, 0x0b, 0x00, 0x00, 0x00, 0x01, 0x00, 0x00, 0x00,
  0x0a, 0x00, 0x00, 0x00, 0x2c, 0xff, 0xff, 0xff, 0x11, 0x00, 0x00, 0x00,
  0x00, 0x00, 0x00, 0x11, 0x01, 0x00, 0x00, 0x00, 0x10, 0xd4, 0xff, 0xff,
  0x14, 0x00, 0x00, 0x00, 0x0c, 0x00, 0x00, 0x00, 0x20, 0x00, 0x00, 0x00,
  0x58, 0x00, 0x00, 0x00, 0x40, 0x00, 0x00, 0x00, 0x04, 0x00, 0x00, 0x00,
  0x01, 0x00, 0x00, 0x00, 0x15, 0x00, 0x00, 0x00, 0x01, 0x00, 0x00, 0x00,
  0x08, 0x00, 0x00, 0x00, 0x20, 0x00, 0x00, 0x00, 0x73, 0x65, 0x71, 0x75,
  0x65, 0x6e, 0x74, 0x69, 0x61, 0x6c, 0x2f, 0x6d, 0x61, 0x78, 0x5f, 0x70,
  0x6f, 0x6f, 0x6c, 0x69, 0x6e, 0x67, 0x32, 0x64, 0x2f, 0x4d, 0x61, 0x78,
  0x50, 0x6f, 0x6f, 0x6c, 0x00, 0x00, 0x00, 0x00, 0x04, 0x00, 0x00, 0x00,
  0xff, 0xff, 0xff, 0xff, 0x15, 0x00, 0x00, 0x00, 0x01, 0x00, 0x00, 0x00,
  0x08, 0x00, 0x00, 0x00, 0x1c, 0xd5, 0xff, 0xff, 0x00, 0x00, 0x0e, 0x00,
  0x14, 0x00, 0x00, 0x00, 0x08, 0x00, 0x0c, 0x00, 0x07, 0x00, 0x10, 0x00,
  0x0e, 0x00, 0x00, 0x00, 0x00, 0x00, 0x00, 0x01, 0x30, 0x00, 0x00, 0x00,
  0x24, 0x00, 0x00, 0x00, 0x10, 0x00, 0x00, 0x00, 0x0c, 0x00, 0x10, 0x00,
  0x00, 0x00, 0x04, 0x00, 0x08, 0x00, 0x0f, 0x00, 0x0c, 0x00, 0x00, 0x00,
  0x01, 0x00, 0x00, 0x00, 0x01, 0x00, 0x00, 0x00, 0x00, 0x00, 0x00, 0x01,
  0x01, 0x00, 0x00, 0x00, 0x0a, 0x00, 0x00, 0x00, 0x03, 0x00, 0x00, 0x00,
  0x00, 0x00, 0x00, 0x00, 0x08, 0x00, 0x00, 0x00, 0x01, 0x00, 0x00, 0x00,
  0x0c, 0x00, 0x10, 0x00, 0x0b, 0x00, 0x00, 0x00, 0x0c, 0x00, 0x04, 0x00,
  0x0c, 0x00, 0x00, 0x00, 0x03, 0x00, 0x00, 0x00, 0x00, 0x00, 0x00, 0x03,
  0x01, 0x00, 0x00, 0x00, 0xf0, 0xd4, 0xff, 0xff, 0x14, 0x00, 0x00, 0x00,
  0x0b, 0x00, 0x00, 0x00, 0x20, 0x00, 0x00, 0x00, 0xb0, 0x00, 0x00, 0x00,
  0x98, 0x00, 0x00, 0x00, 0x04, 0x00, 0x00, 0x00, 0x01, 0x00, 0x00, 0x00,
  0x40, 0x00, 0x00, 0x00, 0x03, 0x00, 0x00, 0x00, 0x08, 0x00, 0x00, 0x00,
  0x7b, 0x00, 0x00, 0x00, 0x73, 0x65, 0x71, 0x75, 0x65, 0x6e, 0x74, 0x69,
  0x61, 0x6c, 0x2f, 0x63, 0x6f, 0x6e, 0x76, 0x32, 0x64, 0x2f, 0x52, 0x65,
  0x6c, 0x75, 0x3b, 0x73, 0x65, 0x71, 0x75, 0x65, 0x6e, 0x74, 0x69, 0x61,
  0x6c, 0x2f, 0x63, 0x6f, 0x6e, 0x76, 0x32, 0x64, 0x2f, 0x42, 0x69, 0x61,
  0x73, 0x41, 0x64, 0x64, 0x3b, 0x73, 0x65, 0x71, 0x75, 0x65, 0x6e, 0x74,
  0x69, 0x61, 0x6c, 0x2f, 0x63, 0x6f, 0x6e, 0x76, 0x32, 0x64, 0x2f, 0x43,
  0x6f, 0x6e, 0x76, 0x32, 0x44, 0x3b, 0x73, 0x65, 0x71, 0x75, 0x65, 0x6e,
  0x74, 0x69, 0x61, 0x6c, 0x2f, 0x63, 0x6f, 0x6e, 0x76, 0x32, 0x64, 0x2f,
  0x42, 0x69, 0x61, 0x73, 0x41, 0x64, 0x64, 0x2f, 0x52, 0x65, 0x61, 0x64,
  0x56, 0x61, 0x72, 0x69, 0x61, 0x62, 0x6c, 0x65, 0x4f, 0x70, 0x2f, 0x72,
  0x65, 0x73, 0x6f, 0x75, 0x72, 0x63, 0x65, 0x00, 0x04, 0x00, 0x00, 0x00,
  0xff, 0xff, 0xff, 0xff, 0x40, 0x00, 0x00, 0x00, 0x03, 0x00, 0x00, 0x00,
  0x08, 0x00, 0x00, 0x00, 0x44, 0xd5, 0xff, 0xff, 0x4e, 0xd6, 0xff, 0xff,
  0x04, 0x00, 0x00, 0x00, 0x00, 0x08, 0x00, 0x00, 0x6a, 0x44, 0x98, 0x3e,
  0x61, 0xcd, 0x89, 0xbe, 0xf2, 0xa2, 0x4d, 0x3e, 0xdf, 0xc8, 0xc8, 0x3e,
  0x17, 0x20, 0xd8, 0x3d, 0x18, 0x2d, 0x9d, 0x3e, 0x42, 0x12, 0x4e, 0x3d,
  0x9f, 0xb6, 0xaf, 0x3d, 0xf1, 0xbb, 0x68, 0x3e, 0x74, 0x98, 0xf6, 0xbe,
  0x1d, 0xea, 0x4c, 0xbe, 0x5e, 0xd0, 0xec, 0xbb, 0x45, 0xb6, 0x00, 0x3e,
  0x5f, 0xd0, 0x09, 0xbe, 0x33, 0x1d, 0x67, 0xbd, 0x95, 0x97, 0x12, 0xbe,
  0x7b, 0x83, 0xd8, 0x3d, 0xe6, 0x56, 0x41, 0xbe, 0xca, 0xd4, 0x86, 0xbe,
  0x15, 0x63, 0x81, 0xbd, 0xd4, 0x8a, 0x7f, 0xbd, 0xe3, 0x2a, 0x93, 0xbe,
  0x3a, 0x38, 0xc7, 0x3d, 0x03, 0x59, 0x66, 0xbe, 0x98, 0x8d, 0x14, 0x3e,
  0x7f, 0x4a, 0xd4, 0x3d, 0x1d, 0x87, 0x77, 0xbe, 0xfe, 0xa6, 0xe8, 0xbd,
  0xc2, 0x99, 0x27, 0xbe, 0x8c, 0x65, 0xca, 0xbe, 0x93, 0x91, 0xce, 0x3d,
  0x38, 0x8a, 0xc1, 0x3d, 0x46, 0xcc, 0x97, 0xbd, 0x82, 0x7b, 0x86, 0xbe,
  0xa0, 0xa4, 0xb8, 0xbd, 0x95, 0x56, 0x4d, 0xbc, 0x33, 0x91, 0x8b, 0xbe,
  0xdb, 0xb2, 0x20, 0xbe, 0xbd, 0xa9, 0xca, 0xbe, 0x44, 0x15, 0x89, 0xbd,
  0x3c, 0xbd, 0x79, 0xbe, 0xcf, 0x21, 0xa8, 0xbc, 0xd8, 0x77, 0x83, 0x3d,
  0x04, 0x2e, 0x5a, 0xbd, 0x88, 0x89, 0x6b, 0xbe, 0x6f, 0x02, 0xc8, 0x3d,
  0x7a, 0x1d, 0x4c, 0xbe, 0xa7, 0x62, 0x3f, 0xbc, 0xce, 0xe1, 0x51, 0xbe,
  0x66, 0xe5, 0x55, 0xbe, 0x1b, 0xbe, 0x6a, 0x3e, 0xfd, 0x98, 0x3d, 0x3d,
  0xd3, 0x06, 0x82, 0xbe, 0xe0, 0xaa, 0xc8, 0xbd, 0xaa, 0x3c, 0xd6, 0x3d,
  0x77, 0xe0, 0x20, 0xbe, 0x3f, 0x8a, 0xdf, 0x3d, 0xf6, 0x26, 0xa3, 0xbd,
  0x37, 0xd4, 0x06, 0x3e, 0x82, 0x26, 0xab, 0x3d, 0x95, 0xd9, 0x23, 0xbe,
  0xfe, 0x09, 0x65, 0x3e, 0x80, 0x2e, 0x54, 0xbd, 0x34, 0x1b, 0x44, 0x3e,
  0x10, 0x37, 0x3b, 0x3e, 0xb7, 0x9b, 0x74, 0x3e, 0xbb, 0x92, 0x8a, 0xbe,
  0x7b, 0xeb, 0x71, 0x3e, 0x80, 0x53, 0xfe, 0xbd, 0xeb, 0x5a, 0x7e, 0xbe,
  0x50, 0xda, 0xf9, 0x3e, 0xd4, 0x10, 0x67, 0x3e, 0x02, 0x86, 0x15, 0xbf,
  0xa4, 0xa3, 0xe4, 0xbd, 0xe2, 0xab, 0xaa, 0xbe, 0x06, 0xb1, 0x00, 0xbf,
  0x2f, 0x6f, 0x2e, 0xbe, 0x86, 0xd2, 0x6c, 0xbe, 0xf2, 0xd2, 0x65, 0xbd,
  0x90, 0xeb, 0xd1, 0x3e, 0x44, 0xed, 0xf4, 0xbd, 0x0e, 0x63, 0x0b, 0xbd,
  0x7e, 0xe8, 0x64, 0xbe, 0x37, 0x30, 0x49, 0xbd, 0xcd, 0x4a, 0x3a, 0xbd,
  0x43, 0x38, 0x52, 0xbc, 0x4c, 0x85, 0x11, 0xbe, 0x91, 0x32, 0x68, 0xbd,
  0x6a, 0xc9, 0xe8, 0xbc, 0x71, 0xf5, 0xc4, 0xba, 0x48, 0x33, 0x99, 0xbd,
  0x8a, 0x65, 0x47, 0xbc, 0x90, 0x3c, 0xd8, 0x3d, 0xc3, 0xd9, 0x24, 0x3e,
  0xd7, 0x1f, 0xb9, 0xbb, 0x43, 0x54, 0xbf, 0xbe, 0x6d, 0xf4, 0x95, 0x3e,
  0xaf, 0x58, 0xbd, 0xbe, 0x63, 0xec, 0xcc, 0xbd, 0x7e, 0xee, 0xea, 0x3b,
  0x0c, 0xb0, 0x35, 0xbe, 0x35, 0xae, 0x35, 0xbe, 0x6c, 0x04, 0x29, 0x3d,
  0x3b, 0xd0, 0x15, 0x3e, 0x6b, 0x04, 0xf3, 0xbd, 0xef, 0xbe, 0x11, 0x3f,
  0xeb, 0x21, 0x9c, 0xbc, 0x0e, 0x7a, 0xd3, 0xb9, 0xec, 0x12, 0x78, 0xbe,
  0x36, 0x20, 0x17, 0xbe, 0x0a, 0xbb, 0x94, 0x3d, 0xd3, 0x35, 0x30, 0x3c,
  0xc9, 0x01, 0x64, 0xbd, 0x58, 0x21, 0xf8, 0xbb, 0x2b, 0x2b, 0x0b, 0x3e,
  0xc8, 0xc1, 0x64, 0x3e, 0x0f, 0xc1, 0x7a, 0xbe, 0xdd, 0xac, 0x5f, 0xbd,
  0x25, 0x3c, 0x15, 0xbc, 0x51, 0x8d, 0xfd, 0xbb, 0xc8, 0xe7, 0x36, 0x3e,
  0xa7, 0x5b, 0xb3, 0x3d, 0x7f, 0xa1, 0xe7, 0x3c, 0xe9, 0x8c, 0xeb, 0x3d,
  0xab, 0xc9, 0x17, 0xbe, 0xa0, 0xf2, 0x6c, 0x3d, 0xfa, 0xda, 0xaa, 0xbc,
  0x59, 0x44, 0x4b, 0xbb, 0x40, 0x68, 0x0b, 0xbf, 0x8c, 0x92, 0xdc, 0xbc,
  0xe5, 0xad, 0xf0, 0xbd, 0xad, 0x31, 0x14, 0xbf, 0x24, 0xd8, 0x25, 0xbe,
  0x0a, 0x32, 0x4a, 0xbe, 0x2c, 0x64, 0x4e, 0xbe, 0x44, 0xda, 0x97, 0xbe,
  0xa4, 0x4a, 0x2c, 0xbe, 0x33, 0x60, 0x8c, 0xbe, 0x7c, 0x06, 0x6f, 0x3b,
  0x48, 0xcd, 0xaa, 0xbd, 0x76, 0xc3, 0xfe, 0xbd, 0xf3, 0xdf, 0x0c, 0xbe,
  0x59, 0x97, 0xcf, 0xbe, 0x98, 0x51, 0xe1, 0x3e, 0x3a, 0x83, 0xa9, 0x3d,
  0x11, 0xb7, 0x22, 0xbe, 0xc0, 0xa4, 0xa8, 0x3c, 0xa2, 0xf2, 0x20, 0x3e,
  0xc2, 0x4d, 0x29, 0x3d, 0xe0, 0x5b, 0xfe, 0x3d, 0xfd, 0xfd, 0x9d, 0x3e,
  0x4a, 0x3c, 0x5f, 0x3e, 0xa3, 0x06, 0x40, 0x3d, 0x11, 0x27, 0xc7, 0xbd,
  0x8a, 0xfb, 0xae, 0xbc, 0x61, 0x1c, 0xaa, 0x3d, 0x2f, 0xee, 0x2f, 0x3e,
  0x96, 0xa2, 0x06, 0x3e, 0x2f, 0xb3, 0xac, 0x3e, 0x10, 0xe4, 0xcd, 0x3e,
  0x29, 0x7a, 0xfd, 0xbb, 0x47, 0xf9, 0xd4, 0xbc, 0x52, 0xdd, 0xb2, 0x3d,
  0x56, 0x6c, 0x20, 0x3e, 0x0f, 0x10, 0x9c, 0xbb, 0xa9, 0x6e, 0x70, 0x3d,
  0x81, 0x27, 0xc8, 0xbd, 0xcb, 0x4c, 0x09, 0x3d, 0x7b, 0x90, 0x8b, 0xbd,
  0xa1, 0xc5, 0xfc, 0x3d, 0x25, 0x01, 0x3e, 0xbd, 0xb5, 0xa1, 0x43, 0xbd,
  0x12, 0x3b, 0xb1, 0x3e, 0xbd, 0xb3, 0x74, 0x3e, 0xc4, 0xf6, 0x1d, 0x3d,
  0xe6, 0x40, 0x0b, 0x3d, 0x44, 0x7d, 0xfa, 0xbc, 0x20, 0x4a, 0x61, 0xbc,
  0x7f, 0x96, 0x6f, 0xbd, 0x57, 0x95, 0x6d, 0xbd, 0x46, 0xf5, 0x0d, 0xbe,
  0xf1, 0xb2, 0x68, 0xbb, 0x82, 0x72, 0x2a, 0x3d, 0xa0, 0xfb, 0xc5, 0xbc,
  0x2c, 0x1d, 0x10, 0xbe, 0x40, 0xc9, 0x68, 0x3e, 0xaa, 0xca, 0x1d, 0x3c,
  0x4f, 0xfd, 0x01, 0xbe, 0x06, 0x5e, 0xf6, 0x3d, 0xd8, 0xd2, 0xa2, 0x3c,
  0xad, 0xb0, 0x31, 0x3d, 0x80, 0x46, 0xb5, 0xbc, 0x44, 0x69, 0x46, 0x3d,
  0xf0, 0x13, 0x81, 0xbd, 0x66, 0x4b, 0xd7, 0xbd, 0xe3, 0x57, 0x6e, 0xbe,
  0x15, 0x96, 0xfa, 0xbd, 0xcd, 0x4e, 0x11, 0xbe, 0x11, 0x0f, 0xcb, 0x3c,
  0xff, 0xda, 0xb3, 0xbe, 0x6e, 0x93, 0x93, 0xbd, 0x0c, 0x5a, 0xc0, 0xbc,
  0x30, 0x02, 0x3f, 0xbd, 0xb5, 0x32, 0x9b, 0xbd, 0xc4, 0x3f, 0xa4, 0xbd,
  0x9d, 0xec, 0x01, 0xbe, 0x3a, 0xe9, 0x71, 0x3e, 0x8d, 0x1b, 0xa3, 0xbb,
  0x97, 0x51, 0x85, 0xbe, 0x6c, 0x18, 0x65, 0xbd, 0xe5, 0x3d, 0x9e, 0x3b,
  0xae, 0xe6, 0x53, 0xbd, 0xf4, 0x7e, 0x95, 0xbd, 0xb5, 0xf1, 0xcf, 0xbd,
  0x89, 0xa2, 0x73, 0xbe, 0x3b, 0x6d, 0x1d, 0x3e, 0x2e, 0x63, 0x3f, 0xbd,
  0xb6, 0xd1, 0xbd, 0xbe, 0x6f, 0x31, 0x25, 0x3c, 0x09, 0x45, 0xc9, 0x3d,
  0x68, 0x62, 0xef, 0x3d, 0xa4, 0xae, 0x3b, 0x3e, 0x1e, 0x26, 0xca, 0xbe,
  0x55, 0x3e, 0xd3, 0x3e, 0x3d, 0x14, 0x64, 0xbe, 0xde, 0xe5, 0x3f, 0x3a,
  0x5d, 0x78, 0x91, 0x3c, 0x91, 0x3d, 0x16, 0x3c, 0xbf, 0x95, 0x7e, 0xbd,
  0xa9, 0x72, 0x6d, 0x3b, 0x62, 0x69, 0x6b, 0xbe, 0x12, 0x71, 0x9b, 0xbc,
  0x77, 0xb7, 0x1f, 0xbe, 0xc4, 0xe4, 0xb1, 0x3c, 0xde, 0xa2, 0x46, 0x3c,
  0xb1, 0x4f, 0x8b, 0x3e, 0x88, 0x3f, 0xe4, 0xbd, 0x87, 0xb1, 0x11, 0xbe,
  0x7e, 0x19, 0x1d, 0xbe, 0x62, 0x4a, 0x3c, 0xbe, 0x4d, 0x64, 0x77, 0xbd,
  0x02, 0x00, 0xfb, 0xbb, 0x48, 0x5b, 0x81, 0x3c, 0xfe, 0xe3, 0xe8, 0xbd,
  0x64, 0x65, 0x52, 0xbe, 0xe9, 0x15, 0xcd, 0xbd, 0x24, 0xe4, 0x38, 0x3e,
  0xcf, 0x14, 0xe7, 0xbe, 0xec, 0x4a, 0x1c, 0x3f, 0x28, 0x8a, 0x70, 0x3d,
  0x77, 0x35, 0x93, 0xbc, 0x99, 0x00, 0xfd, 0x3d, 0xf4, 0x5e, 0x60, 0xbe,
  0x26, 0xe1, 0xe5, 0xbd, 0x70, 0x85, 0x3c, 0x3e, 0x91, 0x4d, 0xaf, 0xbe,
  0xb2, 0x3e, 0x0a, 0x3e, 0x06, 0xac, 0x77, 0xbd, 0x2d, 0xbf, 0x61, 0xbd,
  0x99, 0xe1, 0x32, 0x3f, 0xb6, 0x09, 0x0b, 0xbe, 0x7c, 0xca, 0x51, 0x3d,
  0x89, 0x42, 0x25, 0x3d, 0xfc, 0x84, 0x95, 0x3e, 0xec, 0x6f, 0x25, 0x3c,
  0x6a, 0xf6, 0x8a, 0x3b, 0x77, 0x2a, 0x52, 0xbd, 0x8d, 0x14, 0x74, 0xbd,
  0x21, 0x03, 0xc1, 0xbc, 0x45, 0x38, 0xb4, 0xbd, 0x0e, 0x1d, 0x30, 0x3f,
  0xc8, 0xf6, 0x09, 0xbe, 0x6b, 0x32, 0xe4, 0x3c, 0x8a, 0x86, 0xd9, 0xbc,
  0x83, 0x42, 0x2c, 0xbd, 0xc4, 0xb3, 0x2e, 0xbd, 0x89, 0x36, 0x4c, 0xbc,
  0xb8, 0xb1, 0x23, 0x3e, 0x21, 0xb3, 0x21, 0xbe, 0x3a, 0x84, 0xe7, 0xbd,
  0xe6, 0x99, 0xed, 0xbd, 0xb2, 0x45, 0xcd, 0xbd, 0x4e, 0x69, 0x90, 0xbd,
  0x68, 0xe1, 0xb3, 0xbd, 0x43, 0x60, 0xdf, 0xbc, 0x7d, 0x47, 0x4d, 0xbb,
  0x67, 0x10, 0x81, 0xbe, 0x3a, 0xbd, 0x21, 0xbe, 0x02, 0xce, 0x05, 0xbf,
  0x35, 0x50, 0xf5, 0xbd, 0xb3, 0x33, 0x29, 0xbe, 0xcd, 0x2f, 0x18, 0xbf,
  0xdd, 0x64, 0x97, 0xbe, 0x35, 0x92, 0x0c, 0xbf, 0x47, 0xe9, 0xd6, 0xbe,
  0xb1, 0xce, 0x11, 0xbf, 0x70, 0xc2, 0x3e, 0xbe, 0xe0, 0x94, 0xfd, 0xbd,
  0x94, 0xc2, 0x67, 0xbd, 0x24, 0xac, 0x98, 0xbd, 0x8f, 0x38, 0x0c, 0x3d,
  0xe3, 0x40, 0x83, 0x3e, 0x70, 0x53, 0x38, 0xbd, 0xa3, 0xe3, 0x70, 0x3c,
  0xae, 0x3a, 0xe7, 0xbb, 0x7e, 0x16, 0xa2, 0xbc, 0x73, 0xf8, 0x1e, 0x3d,
  0x21, 0x30, 0x08, 0x3e, 0x97, 0xee, 0x28, 0x3d, 0xef, 0xd0, 0x26, 0xbe,
  0x61, 0x84, 0x05, 0x3d, 0x31, 0x81, 0x1a, 0xbe, 0x3a, 0x6a, 0x81, 0x3d,
  0xed, 0xe8, 0xc2, 0x3e, 0xcc, 0x52, 0xfd, 0x3a, 0x89, 0x29, 0x05, 0x3e,
  0x7d, 0x1e, 0xc7, 0xbd, 0x11, 0x18, 0x60, 0xbe, 0x29, 0x6a, 0xd7, 0x3e,
  0xe3, 0xc6, 0x7c, 0x3e, 0x99, 0xb4, 0x2c, 0xbe, 0x23, 0xa7, 0x9c, 0xbd,
  0x00, 0xc5, 0x50, 0xbd, 0x05, 0x3c, 0xd8, 0xbb, 0x88, 0x60, 0x06, 0xbd,
  0xf2, 0xea, 0x17, 0xba, 0xfb, 0xbc, 0xb8, 0xba, 0xc9, 0x6c, 0x4d, 0xbe,
  0xda, 0x35, 0x2f, 0x3e, 0x4a, 0x34, 0xb6, 0xbd, 0x75, 0x51, 0x45, 0xbd,
  0xc4, 0x59, 0x9e, 0x3e, 0x8d, 0x43, 0x8b, 0xbd, 0xac, 0x3d, 0x5b, 0xbd,
  0x56, 0xec, 0x58, 0x3e, 0x45, 0xfc, 0xb0, 0x3e, 0xb2, 0xbc, 0xfa, 0x3e,
  0x42, 0xe6, 0xc0, 0xbd, 0x93, 0x83, 0x3a, 0xbd, 0x8d, 0x86, 0xc6, 0x3c,
  0x25, 0xad, 0x41, 0xbc, 0xbc, 0x21, 0x3a, 0x3d, 0x92, 0x81, 0xd1, 0x3d,
  0x57, 0x88, 0x9d, 0x3e, 0x96, 0xe5, 0x66, 0x3e, 0x2d, 0x7c, 0x05, 0xbe,
  0xd8, 0x22, 0xa7, 0xbd, 0x90, 0xd5, 0xb9, 0xbc, 0x97, 0x59, 0x86, 0xbd,
  0xe4, 0xa2, 0x80, 0xbd, 0xc9, 0xe3, 0x8c, 0xbc, 0x88, 0xb0, 0xf5, 0xbe,
  0x11, 0xf3, 0x76, 0xbe, 0x8b, 0x03, 0x83, 0xbe, 0xc1, 0xc4, 0x9f, 0xbe,
  0x88, 0xb6, 0x0b, 0xbe, 0xb8, 0xfe, 0xc2, 0x3d, 0x81, 0xe3, 0xa8, 0xbe,
  0xc6, 0xdb, 0x7b, 0xbe, 0x58, 0xde, 0xa2, 0x3a, 0x07, 0xb3, 0x7e, 0x3e,
  0x2e, 0x81, 0x08, 0x3e, 0xdc, 0x2b, 0x7f, 0xbd, 0x40, 0x47, 0x93, 0xbe,
  0xf4, 0x7a, 0xaf, 0x3e, 0xf9, 0xd9, 0x5d, 0xbe, 0xdb, 0xd8, 0xdb, 0xbd,
  0x47, 0xef, 0x7c, 0x3b, 0xae, 0xbf, 0x0b, 0xbe, 0x61, 0xa0, 0x38, 0x3d,
  0xbe, 0x04, 0x02, 0xbe, 0x83, 0xf6, 0xf9, 0xbd, 0xef, 0x56, 0x13, 0xbd,
  0x7c, 0x96, 0xb6, 0xbd, 0x7b, 0xd3, 0xdf, 0xbc, 0x93, 0xae, 0x99, 0xbd,
  0x78, 0x9c, 0xbd, 0xbd, 0x81, 0x41, 0x05, 0xbe, 0xd1, 0x0a, 0x7a, 0x3d,
  0x1d, 0xe0, 0x91, 0xbd, 0xc9, 0x40, 0xfd, 0x3d, 0x9f, 0xbe, 0x79, 0x3d,
  0x8a, 0xe4, 0x70, 0xbc, 0xf6, 0xff, 0xf9, 0x3d, 0xcd, 0x1d, 0x37, 0x3e,
  0x65, 0xe0, 0x8d, 0x3c, 0x2f, 0xeb, 0x1d, 0xbe, 0x44, 0x4a, 0xa3, 0x3e,
  0x4f, 0x7d, 0x13, 0xbe, 0x19, 0x79, 0xef, 0xbe, 0x3d, 0x6b, 0x8c, 0x3e,
  0xe9, 0xf0, 0x61, 0x3e, 0xdd, 0x0c, 0x34, 0x3e, 0x89, 0x91, 0x65, 0x3d,
  0x3b, 0x81, 0xc6, 0xbd, 0x0b, 0xd3, 0xfe, 0x3d, 0x33, 0x5e, 0x24, 0xbe,
  0xa2, 0xb5, 0xa1, 0xbe, 0xf7, 0xd5, 0x07, 0xbe, 0xda, 0x6e, 0x98, 0x3d,
  0xa2, 0xc3, 0x8f, 0xbd, 0x9c, 0x28, 0x99, 0x3d, 0x4e, 0x2b, 0x47, 0xbd,
  0x78, 0xd0, 0xfb, 0x3d, 0x7b, 0xf8, 0xe6, 0xbd, 0x93, 0x9c, 0xe9, 0xbd,
  0xc9, 0x40, 0x57, 0x3d, 0x59, 0x5a, 0xbf, 0x3e, 0xae, 0x10, 0x4a, 0xbd,
  0xdd, 0xbe, 0x0c, 0xbe, 0xab, 0x8c, 0xf1, 0x3d, 0x76, 0x7e, 0xc8, 0xbd,
  0x00, 0x5a, 0x25, 0xbd, 0xbb, 0x85, 0x6c, 0x3e, 0xab, 0x1b, 0x8f, 0x3b,
  0xd3, 0x54, 0x9d, 0x3e, 0xd3, 0x67, 0x94, 0xbc, 0x4e, 0xeb, 0xf1, 0x3d,
  0x71, 0xb1, 0x96, 0xbe, 0x80, 0xe2, 0xbd, 0x3e, 0xa0, 0x39, 0x98, 0xbe,
  0x66, 0x29, 0x32, 0xbe, 0xee, 0x5c, 0x91, 0x3d, 0x32, 0x2f, 0xc3, 0x3e,
  0x5f, 0x24, 0x9f, 0xba, 0xba, 0x22, 0x4a, 0xbc, 0x4d, 0x2a, 0x94, 0xbe,
  0x90, 0x1e, 0x8f, 0x3d, 0xcb, 0x37, 0x51, 0xbe, 0x1a, 0xef, 0x65, 0xbe,
  0xa0, 0xe5, 0x37, 0x3e, 0x9a, 0xd8, 0x84, 0x3e, 0xb1, 0x8e, 0xcf, 0xbc,
  0x3c, 0x0e, 0xc2, 0xbd, 0xbc, 0x9b, 0x6a, 0xbe, 0x6c, 0xad, 0xdd, 0x3d,
  0x0a, 0x74, 0x68, 0xbd, 0x72, 0xda, 0x82, 0x3d, 0xcb, 0x90, 0x2e, 0x3e,
  0x71, 0xf2, 0x8e, 0xbe, 0x53, 0x77, 0x8e, 0xbd, 0x09, 0x3d, 0xd6, 0xbd,
  0xfe, 0xd2, 0x48, 0xbe, 0xec, 0x8f, 0x96, 0x3e, 0x9e, 0xd8, 0xec, 0xbd,
  0xfa, 0x96, 0x00, 0x3e, 0x0d, 0xe8, 0xe9, 0xba, 0x08, 0x38, 0xc5, 0x3e,
  0x6c, 0x4e, 0x64, 0x3e, 0x51, 0xed, 0x26, 0xbd, 0x52, 0x04, 0x87, 0xbe,
  0x4c, 0x8d, 0x90, 0x3e, 0x8d, 0x93, 0xd1, 0xbe, 0xcd, 0xcb, 0x3e, 0xbe,
  0x47, 0x41, 0xdf, 0xbc, 0x6b, 0x17, 0x06, 0xbd, 0xd2, 0x2b, 0x0b, 0x3e,
  0xf9, 0x40, 0x1c, 0x3e, 0xc1, 0x09, 0xe3, 0xbe, 0x7a, 0xcd, 0xf5, 0x3e,
  0x59, 0x2c, 0xaa, 0xbe, 0x27, 0x10, 0xc9, 0xbe, 0x45, 0x9f, 0xec, 0x3e,
  0x15, 0x8c, 0x10, 0x3e, 0x15, 0xe5, 0x88, 0xbe, 0xf0, 0x7d, 0x94, 0x3c,
  0x28, 0x1b, 0xa6, 0xbe, 0xdd, 0x9b, 0x47, 0x3e, 0x5d, 0x8b, 0x68, 0xbe,
  0x4b, 0x94, 0x67, 0x3d, 0xea, 0x2f, 0xb1, 0xbd, 0x9d, 0x99, 0x00, 0x3e,
  0xd8, 0xa6, 0x11, 0xbd, 0x6f, 0x5e, 0xf2, 0xbd, 0xe5, 0x17, 0x7e, 0xbe,
  0x22, 0x8a, 0xb4, 0x3d, 0xcc, 0x08, 0x2e, 0xbe, 0x37, 0x75, 0xbf, 0x3d,
  0xd7, 0xd3, 0x8c, 0x3e, 0x9d, 0x2d, 0x84, 0x3e, 0xc8, 0x39, 0x9a, 0xbe,
  0xc8, 0x1a, 0x88, 0xbe, 0x28, 0xf4, 0x64, 0xbd, 0xf6, 0xb9, 0x67, 0xbe,
  0x45, 0xfa, 0xc0, 0xbe, 0xf4, 0xfd, 0x1d, 0xbe, 0xb1, 0x39, 0xaa, 0xbe,
  0x44, 0x8a, 0x7f, 0x3c, 0x80, 0xd1, 0x22, 0xbe, 0x49, 0x03, 0xd8, 0x3e,
  0x6b, 0xb2, 0x20, 0x3d, 0xe6, 0xac, 0xdc, 0xbe, 0xa4, 0x96, 0x3d, 0xbe,
  0x4c, 0xa0, 0xfd, 0xbd, 0x40, 0x54, 0x93, 0xbe, 0x58, 0x5a, 0xe2, 0xbd,
  0xa0, 0xfa, 0xbb, 0x3b, 0x73, 0x8b, 0xb8, 0x3c, 0x72, 0x8c, 0xf0, 0x3c,
  0xf7, 0xa3, 0xc4, 0x3d, 0x91, 0x45, 0x8c, 0xbe, 0x3a, 0x03, 0xe3, 0xbd,
  0x16, 0xe6, 0xaa, 0xbd, 0x17, 0x1c, 0xcb, 0xbe, 0x75, 0xc5, 0x92, 0x3e,
  0x91, 0x1b, 0x90, 0x3e, 0xe2, 0x2b, 0xd0, 0xbc, 0x7c, 0x17, 0x4e, 0x3e,
  0x1b, 0x8f, 0x27, 0xbe, 0x04, 0x23, 0x70, 0xbe, 0x7e, 0x4e, 0xc8, 0x3e,
  0xef, 0xf6, 0xbc, 0xbd, 0x26, 0xde, 0xff, 0xff, 0x10, 0x00, 0x00, 0x00,
  0x0a, 0x00, 0x00, 0x00, 0x1c, 0x00, 0x00, 0x00, 0x38, 0x00, 0x00, 0x00,
  0x04, 0x00, 0x00, 0x00, 0x10, 0x00, 0x00, 0x00, 0x04, 0x00, 0x00, 0x00,
  0x01, 0x00, 0x00, 0x00, 0x08, 0x00, 0x00, 0x00, 0x1a, 0x00, 0x00, 0x00,
  0x73, 0x65, 0x71, 0x75, 0x65, 0x6e, 0x74, 0x69, 0x61, 0x6c, 0x2f, 0x63,
  0x6f, 0x6e, 0x76, 0x32, 0x64, 0x5f, 0x31, 0x2f, 0x43, 0x6f, 0x6e, 0x76,
  0x32, 0x44, 0x00, 0x00, 0x9c, 0xdd, 0xff, 0xff, 0xa6, 0xde, 0xff, 0xff,
  0x04, 0x00, 0x00, 0x00, 0x80, 0x01, 0x00, 0x00, 0x88, 0x10, 0x44, 0xbe,
  0x73, 0x2d, 0x75, 0x3d, 0xa7, 0xff, 0xb0, 0xbd, 0x57, 0x9f, 0x89, 0xbe,
  0x47, 0xce, 0x07, 0xbd, 0xa6, 0xfa, 0x61, 0xbe, 0x32, 0x32, 0x86, 0x3d,
  0x23, 0x88, 0x63, 0x3d, 0x6c, 0x37, 0xa7, 0xbd, 0xbb, 0xae, 0xe1, 0x3e,
  0x8a, 0x48, 0x85, 0xbd, 0x59, 0x17, 0xd2, 0x3e, 0xbb, 0x74, 0xa3, 0x3d,
  0xb9, 0x6f, 0xb5, 0xbe, 0x6f, 0xc1, 0xe1, 0x3c, 0xba, 0x33, 0x28, 0xbc,
  0x05, 0x39, 0x83, 0x3e, 0x50, 0xbb, 0x7a, 0xbe, 0xc8, 0xeb, 0x88, 0x3e,
  0xeb, 0x9c, 0x50, 0x3d, 0x56, 0x43, 0x2d, 0x3d, 0x1e, 0x12, 0xca, 0x3d,
  0x13, 0x27, 0x51, 0x3e, 0x1f, 0x94, 0xaf, 0x3c, 0x50, 0x87, 0x74, 0xbd,
  0x6f, 0x5c, 0xab, 0x3b, 0xcf, 0xd3, 0xce, 0xbd, 0x80, 0x59, 0x45, 0xbd,
  0xcd, 0x91, 0xab, 0x3d, 0xe4, 0x7e, 0x9e, 0xbd, 0x7f, 0x05, 0x13, 0xbd,
  0x8f, 0xed, 0x8f, 0x3c, 0x57, 0x31, 0xbb, 0xbd, 0x51, 0x83, 0xd7, 0xb9,
  0x1f, 0xa9, 0xa9, 0x3c, 0xef, 0xd2, 0xba, 0xbd, 0xa0, 0x45, 0xd2, 0x3c,
  0xfa, 0xd1, 0x53, 0x3d, 0x30, 0xa9, 0x8a, 0xbc, 0x0f, 0x3c, 0xc7, 0x3d,
  0x82, 0x39, 0x85, 0xbe, 0xbe, 0xa1, 0xe7, 0xbe, 0xb8, 0x40, 0x39, 0xbe,
  0xa5, 0x22, 0x6a, 0x3e, 0xf1, 0xab, 0x64, 0xbc, 0x8f, 0x79, 0xb1, 0x3d,
  0xe1, 0x39, 0x0e, 0x3d, 0xfd, 0xfc, 0xfd, 0x3e, 0xb6, 0x10, 0x72, 0x3d,
  0xa4, 0xc1, 0x16, 0xbe, 0x54, 0x7b, 0x2b, 0x3e, 0x95, 0x7a, 0xcb, 0xbd,
  0xa0, 0x8e, 0x87, 0xbc, 0xa7, 0x8a, 0x19, 0x3e, 0x75, 0xe7, 0xc1, 0xbd,
  0xe5, 0xa6, 0x9c, 0x3d, 0x15, 0x9a, 0xcf, 0x3d, 0xaf, 0x2e, 0x89, 0xbd,
  0x16, 0x10, 0xfd, 0x3d, 0x81, 0x6a, 0xdb, 0x3d, 0x86, 0xa9, 0xaa, 0x3c,
  0x8f, 0x59, 0x25, 0x3e, 0xb8, 0x71, 0x29, 0xbe, 0x5a, 0x47, 0x3f, 0xbd,
  0x87, 0x97, 0xf1, 0xbb, 0x81, 0xef, 0xa3, 0xbd, 0xcf, 0xdf, 0x9f, 0x3d,
  0x71, 0x2b, 0x25, 0xbe, 0xa5, 0xd0, 0x07, 0x3d, 0x6a, 0x26, 0x86, 0xbc,
  0xdf, 0x6e, 0x14, 0xbe, 0xf6, 0x7d, 0xa3, 0x3d, 0x9b, 0x93, 0x14, 0xbd,
  0xc2, 0x65, 0x6c, 0xbd, 0x05, 0xc4, 0x9a, 0xbd, 0x41, 0xb1, 0x3d, 0xbe,
  0xf2, 0xe7, 0xc3, 0xbe, 0x8d, 0x09, 0xb4, 0xbe, 0x72, 0x36, 0x83, 0x3e,
  0xc5, 0x95, 0xe3, 0x3e, 0x5a, 0xec, 0xc6, 0x3e, 0x68, 0x79, 0x2b, 0xbc,
  0xb2, 0x60, 0xa7, 0x3c, 0x5a, 0xc2, 0x98, 0x3d, 0xc8, 0xae, 0xa7, 0x3d,
  0x16, 0x0d, 0xf7, 0xbc, 0xfc, 0x8b, 0x15, 0x39, 0xf3, 0xe8, 0x0f, 0x3f,
  0x0e, 0x90, 0x6e, 0x3e, 0x52, 0x26, 0xc4, 0xbc, 0x1a, 0xed, 0x01, 0xbe,
  0xb5, 0x97, 0x20, 0x3d, 0x28, 0xbe, 0x80, 0x3d, 0x38, 0x8b, 0xef, 0xbe,
  0x03, 0x20, 0x7f, 0xbe, 0x56, 0x68, 0x06, 0x3d, 0xfe, 0xdf, 0xff, 0xff,
  0x10, 0x00, 0x00, 0x00, 0x09, 0x00, 0x00, 0x00, 0x1c, 0x00, 0x00, 0x00,
  0x38, 0x00, 0x00, 0x00, 0x04, 0x00, 0x00, 0x00, 0x08, 0x00, 0x00, 0x00,
  0x04, 0x00, 0x00, 0x00, 0x03, 0x00, 0x00, 0x00, 0x01, 0x00, 0x00, 0x00,
  0x18, 0x00, 0x00, 0x00, 0x73, 0x65, 0x71, 0x75, 0x65, 0x6e, 0x74, 0x69,
  0x61, 0x6c, 0x2f, 0x63, 0x6f, 0x6e, 0x76, 0x32, 0x64, 0x2f, 0x43, 0x6f,
  0x6e, 0x76, 0x32, 0x44, 0x00, 0x00, 0x00, 0x00, 0x74, 0xdf, 0xff, 0xff,
  0x7e, 0xe0, 0xff, 0xff, 0x04, 0x00, 0x00, 0x00, 0xc0, 0x00, 0x00, 0x00,
  0xb0, 0xf9, 0x72, 0x3d, 0x77, 0x85, 0xa8, 0x3c, 0xbf, 0xa6, 0x92, 0x3e,
  0xbd, 0xfb, 0x0f, 0xbe, 0xf5, 0xcf, 0x27, 0x3e, 0xae, 0x06, 0x83, 0xbe,
  0x75, 0xe7, 0xda, 0x3d, 0x8f, 0xea, 0x1e, 0xbe, 0x50, 0xbf, 0x95, 0xbe,
  0xf3, 0xc1, 0xa4, 0xbd, 0xa2, 0xb4, 0x3e, 0xbb, 0xa3, 0xa0, 0xe0, 0xbe,
  0xc2, 0xa8, 0xe7, 0x3e, 0x5c, 0xc9, 0x40, 0xbe, 0xea, 0x26, 0x47, 0x3e,
  0x52, 0x17, 0xc3, 0x3d, 0x12, 0xcc, 0xd0, 0x3d, 0x15, 0x99, 0xd4, 0x3d,
  0x0d, 0xb8, 0x9b, 0x3e, 0xcb, 0x23, 0x9b, 0xbd, 0xc5, 0x82, 0x34, 0x3e,
  0xae, 0x80, 0x63, 0x3e, 0xf2, 0x69, 0xbf, 0xbe, 0x1d, 0x35, 0xdf, 0xbd,
  0xe6, 0xf0, 0xdb, 0xbe, 0x2b, 0xf8, 0x09, 0xbd, 0x95, 0xf3, 0x0b, 0xbe,
  0x57, 0xbd, 0x0d, 0xbc, 0x09, 0xc9, 0xdc, 0x3e, 0x5f, 0xa9, 0x69, 0xbe,
  0x25, 0xd3, 0x46, 0x3e, 0x52, 0x86, 0x6b, 0x3d, 0x96, 0x02, 0x42, 0x3e,
  0xdb, 0x73, 0x28, 0x3c, 0x42, 0x2c, 0x7a, 0xbe, 0x1a, 0xf4, 0x28, 0xbe,
  0x05, 0xe2, 0x57, 0x3e, 0x0f, 0xe3, 0xa1, 0xbe, 0x20, 0x1a, 0xed, 0xbe,
  0x64, 0x57, 0x03, 0xbe, 0xc5, 0xa0, 0x73, 0xbe, 0x5c, 0xc4, 0x7b, 0xbe,
  0x89, 0x1a, 0xa5, 0xbd, 0x6b, 0xad, 0xd1, 0x3e, 0x70, 0xbb, 0xfe, 0x3e,
  0xe7, 0xed, 0x54, 0xbe, 0xd9, 0x3b, 0x7f, 0x3e, 0x60, 0x32, 0x28, 0x3d,
  0x16, 0xe1, 0xff, 0xff, 0x10, 0x00, 0x00, 0x00, 0x08, 0x00, 0x00, 0x00,
  0x14, 0x00, 0x00, 0x00, 0x30, 0x00, 0x00, 0x00, 0x02, 0x00, 0x00, 0x00,
  0x03, 0x00, 0x00, 0x00, 0x10, 0x00, 0x00, 0x00, 0x19, 0x00, 0x00, 0x00,
  0x73, 0x65, 0x71, 0x75, 0x65, 0x6e, 0x74, 0x69, 0x61, 0x6c, 0x2f, 0x64,
  0x65, 0x6e, 0x73, 0x65, 0x5f, 0x31, 0x2f, 0x4d, 0x61, 0x74, 0x4d, 0x75,
  0x6c, 0x00, 0x00, 0x00, 0x84, 0xe0, 0xff, 0xff, 0x8e, 0xe1, 0xff, 0xff,
  0x04, 0x00, 0x00, 0x00, 0x00, 0x1c, 0x00, 0x00, 0x00, 0x65, 0x1f, 0xbe,
  0xdf, 0xdd, 0xe3, 0x3e, 0xae, 0xdb, 0x20, 0xbe, 0xb0, 0x25, 0x7c, 0x3d,
  0x67, 0xdd, 0x96, 0x3d, 0x11, 0x05, 0x89, 0xbe, 0x23, 0xa4, 0x80, 0xbe,
  0x5b, 0x89, 0x70, 0x3e, 0xa8, 0x03, 0xca, 0xbc, 0x67, 0x78, 0xa0, 0xbc,
  0x2a, 0x30, 0xf1, 0xbc, 0x9a, 0xf9, 0xe5, 0xbd, 0x19, 0x2d, 0x76, 0x3c,
  0xdb, 0xc5, 0x2e, 0x3e, 0xab, 0x56, 0xbf, 0xbd, 0x6b, 0xee, 0x77, 0x3c,
  0x8f, 0x46, 0xd6, 0xbd, 0x17, 0xec, 0xe5, 0x3e, 0x6a, 0x8d, 0xbe, 0xbc,
  0x72, 0xaf, 0x7f, 0x3d, 0xb0, 0xb1, 0x7a, 0xbd, 0x60, 0x43, 0x95, 0xbe,
  0x36, 0x99, 0x3d, 0xbe, 0x3e, 0x2c, 0xb8, 0x3d, 0x5e, 0x85, 0x27, 0x3c,
  0x56, 0x72, 0x25, 0xbd, 0x1e, 0x8b, 0xc8, 0xbd, 0x2e, 0x09, 0x75, 0x3e,
  0xd2, 0xa6, 0x41, 0xbd, 0x99, 0xd6, 0x0b, 0x3e, 0xdb, 0xda, 0xa3, 0x3e,
  0xa9, 0x90, 0x54, 0x3d, 0x32, 0xcd, 0x85, 0xbe, 0xac, 0x18, 0x89, 0x3d,
  0xc5, 0xc8, 0x5d, 0x3e, 0xb1, 0x41, 0xef, 0x3d, 0xa3, 0xf2, 0x58, 0xbe,
  0x98, 0x85, 0x2b, 0xbe, 0xe5, 0x5d, 0x86, 0xbc, 0x39, 0x6f, 0x34, 0xbd,
  0xac, 0x5d, 0x34, 0x3e, 0x9a, 0xcd, 0x87, 0x3e, 0x4a, 0x07, 0x87, 0x3e,
  0x7a, 0x47, 0xe4, 0x3d, 0xd1, 0x91, 0xb4, 0x3c, 0x3c, 0xce, 0x16, 0x3f,
  0x23, 0x1b, 0x9c, 0x3e, 0x46, 0x31, 0x29, 0x3e, 0xc9, 0x32, 0x3b, 0x3e,
  0x16, 0x77, 0x08, 0x3e, 0xc6, 0x11, 0xbb, 0x3e, 0x2d, 0x51, 0x08, 0xbe,
  0xa1, 0x35, 0x3b, 0xbd, 0x9d, 0x3d, 0xb9, 0xbe, 0x3c, 0x5a, 0xf2, 0x3d,
  0xd7, 0xc2, 0x6a, 0x3e, 0x9a, 0x01, 0x7c, 0x3e, 0x05, 0x08, 0xb2, 0x3d,
  0x26, 0xce, 0x0a, 0x3e, 0x8c, 0x15, 0xfa, 0x3d, 0xbf, 0xd5, 0xe2, 0x3d,
  0x82, 0xcc, 0x17, 0x3f, 0x10, 0xe8, 0xf2, 0x3e, 0x53, 0x44, 0x4b, 0xbe,
  0x00, 0xf3, 0xf7, 0x3d, 0x78, 0xdf, 0xec, 0x3e, 0xe8, 0xd8, 0x75, 0x3e,
  0xcf, 0x7f, 0xa9, 0x3e, 0xbc, 0xe6, 0x55, 0xbe, 0x10, 0xd0, 0x15, 0xbe,
  0xd7, 0x6a, 0x29, 0xbd, 0x0b, 0xfb, 0xf0, 0xbd, 0xd0, 0xa6, 0x3a, 0x3d,
  0x04, 0xb6, 0x30, 0xbe, 0xfb, 0x0b, 0x22, 0x3e, 0xaf, 0x1c, 0xe5, 0x3d,
  0x86, 0x4d, 0x19, 0xbd, 0x8e, 0x5b, 0x5e, 0x3e, 0x55, 0xb2, 0xe8, 0x3d,
  0x25, 0xd4, 0x81, 0xbd, 0x40, 0xb5, 0xe3, 0xbc, 0x6b, 0xca, 0x79, 0x3e,
  0xe2, 0x3f, 0xb6, 0x3c, 0xd0, 0xea, 0xf8, 0x3d, 0xfa, 0x20, 0xd7, 0xbd,
  0xad, 0x89, 0xcf, 0xbe, 0x03, 0x33, 0x03, 0xbe, 0x45, 0x37, 0x35, 0xbe,
  0x16, 0xa5, 0xe8, 0x3d, 0x64, 0xc7, 0xcc, 0xbd, 0xc6, 0x28, 0xd6, 0x3d,
  0xef, 0xb1, 0xf3, 0xbc, 0x34, 0x98, 0x28, 0x3d, 0xbe, 0x8d, 0x5a, 0x3d,
  0xb8, 0xad, 0x82, 0x3e, 0x28, 0x34, 0xc1, 0x3a, 0x47, 0x09, 0x81, 0xbe,
  0xe2, 0x69, 0x9c, 0x3e, 0x3f, 0xe2, 0x1e, 0x3e, 0xd2, 0xd1, 0xfe, 0x3d,
  0x57, 0x3c, 0xc6, 0xbd, 0x07, 0x2c, 0xc6, 0xbe, 0x92, 0x5e, 0x5f, 0xbe,
  0xb5, 0x43, 0xf8, 0x3c, 0xf2, 0xbc, 0x2f, 0xbd, 0x4a, 0xd8, 0x52, 0xbc,
  0x7f, 0xd9, 0xef, 0xbd, 0xda, 0xb0, 0x89, 0x3d, 0x25, 0xbc, 0x05, 0xbd,
  0xfc, 0xe5, 0x75, 0x3d, 0x6d, 0xc3, 0x82, 0x3e, 0x7f, 0xc0, 0x49, 0x3e,
  0xfe, 0xee, 0x36, 0x3d, 0xe9, 0x65, 0xba, 0xbe, 0xa4, 0xa3, 0x41, 0xbd,
  0x84, 0xd1, 0xe1, 0x3d, 0x1f, 0x8d, 0x35, 0xbf, 0x25, 0x62, 0x9c, 0xbe,
  0xfc, 0xfb, 0x2e, 0xbe, 0xae, 0xb1, 0x94, 0xbe, 0x15, 0x8a, 0x14, 0xbd,
  0x5a, 0x32, 0x1b, 0xbe, 0x47, 0x03, 0x87, 0xbe, 0xc8, 0x81, 0xca, 0xbd,
  0xb8, 0xdc, 0xdb, 0xbc, 0x4f, 0xaa, 0x37, 0xbe, 0x8a, 0x8d, 0xaa, 0xbd,
  0xd9, 0x3c, 0x06, 0x3d, 0x96, 0x08, 0x82, 0xbe, 0x77, 0x3f, 0x5e, 0xbe,
  0xc9, 0x4e, 0x26, 0x3e, 0x85, 0x56, 0xf1, 0x39, 0xc8, 0x49, 0xe8, 0xbe,
  0x8c, 0xf2, 0x1f, 0xbe, 0x90, 0x1c, 0x22, 0xbe, 0x7c, 0xa3, 0xa0, 0x3c,
  0xeb, 0xdf, 0x93, 0xbe, 0x6b, 0x21, 0x83, 0xbc, 0x61, 0x0c, 0xa8, 0x3d,
  0xeb, 0x5f, 0x4d, 0xbe, 0x05, 0xdf, 0xdd, 0xbd, 0xf0, 0x22, 0x41, 0xbe,
  0x7b, 0x45, 0xfa, 0xbd, 0xa0, 0x47, 0xb3, 0x3d, 0x96, 0xcc, 0xd9, 0x3b,
  0x62, 0x77, 0x85, 0xbe, 0xc0, 0x2e, 0xf2, 0xbd, 0xcb, 0x87, 0xf3, 0x3c,
  0x20, 0xee, 0xc6, 0xbd, 0x5c, 0x15, 0x5c, 0xbe, 0x38, 0x6d, 0xb9, 0xbd,
  0x13, 0xda, 0xad, 0x3d, 0x0d, 0xd4, 0x48, 0xbe, 0x93, 0x1c, 0x20, 0xbe,
  0x6a, 0x12, 0x71, 0xbe, 0xa2, 0xdf, 0x32, 0xbe, 0xb1, 0x83, 0x13, 0x3d,
  0x19, 0x3a, 0x97, 0x3e, 0xf5, 0xe5, 0xd2, 0xbd, 0x36, 0x69, 0xb1, 0xbd,
  0xcf, 0xbc, 0xa7, 0xbc, 0xe1, 0xdf, 0xe1, 0xbe, 0xd3, 0x7a, 0xd6, 0x39,
  0x20, 0x76, 0x8b, 0xbd, 0xf4, 0x6d, 0xd9, 0xbe, 0x21, 0x6a, 0xa0, 0xbe,
  0x4d, 0x9e, 0x90, 0xbb, 0xb7, 0xf9, 0x6a, 0xbe, 0x3a, 0xa5, 0x16, 0xbd,
  0xa5, 0xd3, 0x37, 0xbe, 0x7c, 0x7a, 0x19, 0xbe, 0x8d, 0x59, 0x4c, 0xbe,
  0x34, 0x1b, 0x68, 0xbe, 0x7f, 0xfb, 0x60, 0xbe, 0xf6, 0x63, 0x78, 0xbd,
  0x39, 0x55, 0x0d, 0xbe, 0xd3, 0x7f, 0x8f, 0xbe, 0x10, 0xbe, 0xa8, 0xbe,
  0xe6, 0x53, 0x36, 0x3c, 0x7c, 0xee, 0x49, 0x3c, 0x59, 0x70, 0xf5, 0xbd,
  0x27, 0xf9, 0x4d, 0xbe, 0x03, 0xf3, 0xb8, 0xbd, 0xb4, 0xb8, 0xb7, 0x3e,
  0x9c, 0xa0, 0xe2, 0xbe, 0xac, 0x78, 0x40, 0x3e, 0x56, 0xdd, 0x17, 0xbe,
  0xf0, 0xba, 0xf0, 0xbd, 0xd2, 0x01, 0xda, 0xbd, 0x02, 0x08, 0x65, 0x3d,
  0x5e, 0x1d, 0x40, 0xbd, 0x4a, 0x9d, 0x80, 0x3e, 0x45, 0xa5, 0xd6, 0x3b,
  0x34, 0x2d, 0xb2, 0xbe, 0x5e, 0x7b, 0xef, 0x3e, 0xf2, 0x60, 0x73, 0x3d,
  0xa7, 0x8d, 0xa4, 0xbd, 0x9c, 0x01, 0xbe, 0xbd, 0x9c, 0xe7, 0xf0, 0x3d,
  0x4e, 0x3e, 0xbc, 0x3d, 0xb1, 0xf5, 0x65, 0x3d, 0x8a, 0x52, 0x4a, 0x3e,
  0x3d, 0x63, 0x6e, 0xbc, 0x69, 0xd5, 0x8b, 0x3e, 0x45, 0x96, 0xaf, 0xbc,
  0x59, 0x16, 0xa8, 0xbd, 0x0e, 0x23, 0x8f, 0x3e, 0x5a, 0x2b, 0x41, 0x3e,
  0x1c, 0xd7, 0x8b, 0xbd, 0xe1, 0xeb, 0xaf, 0x3c, 0xe2, 0x0a, 0x15, 0x3e,
  0xc2, 0xcc, 0x71, 0x3d, 0xa8, 0x98, 0xa2, 0x3d, 0x0e, 0x45, 0x2c, 0xbe,
  0x7a, 0xac, 0x5b, 0x3d, 0xe1, 0x54, 0xeb, 0xbd, 0x6c, 0x8e, 0x06, 0xbc,
  0xba, 0xfa, 0x73, 0x3e, 0x33, 0x3d, 0xfa, 0x3d, 0x46, 0x11, 0x1b, 0x3d,
  0xd4, 0x95, 0x84, 0x3c, 0xe8, 0x4f, 0x37, 0x3d, 0xf5, 0xea, 0x47, 0x3e,
  0xdb, 0xf0, 0x00, 0x3e, 0x3a, 0x3f, 0x09, 0x3e, 0xa1, 0x94, 0x8a, 0xbe,
  0x30, 0x6c, 0x90, 0x3e, 0xb6, 0xdc, 0x1e, 0xbd, 0x3c, 0x72, 0xf2, 0xbd,
  0x0a, 0x28, 0x53, 0xbe, 0x64, 0x4d, 0xb9, 0x3e, 0x6d, 0xf3, 0x95, 0x3e,
  0xbc, 0x1b, 0x16, 0xbe, 0x88, 0xef, 0xd2, 0xbe, 0xb0, 0x84, 0xbd, 0x3d,
  0x14, 0x3d, 0x88, 0xbd, 0x45, 0x68, 0x78, 0x3d, 0xca, 0x59, 0x97, 0x3e,
  0x3c, 0x3e, 0x4f, 0x3e, 0xd5, 0x11, 0xc8, 0x3c, 0x2f, 0xc7, 0x09, 0x3e,
  0x6a, 0x98, 0x51, 0xbd, 0x7f, 0x6a, 0x26, 0x3e, 0xb6, 0x6e, 0xb5, 0xbd,
  0x3c, 0x9b, 0x33, 0xbe, 0x13, 0x5e, 0x63, 0xbe, 0x53, 0x96, 0x9d, 0x3d,
  0xda, 0x09, 0x09, 0x3f, 0xc3, 0x7e, 0xb5, 0xbd, 0x4e, 0x99, 0x7b, 0xbd,
  0xee, 0xfb, 0x7c, 0x3e, 0x42, 0xe8, 0x4b, 0xbd, 0xf6, 0x40, 0x0d, 0x3d,
  0x43, 0x44, 0x9c, 0x3d, 0x73, 0xdc, 0xda, 0xbd, 0xb6, 0xf1, 0x83, 0xbc,
  0x8b, 0xed, 0x23, 0x3e, 0xd7, 0xb9, 0xd0, 0x3d, 0x13, 0x30, 0x63, 0x3d,
  0x93, 0x80, 0x22, 0xbe, 0xbe, 0x69, 0xbf, 0xbd, 0x39, 0xaf, 0x89, 0xbd,
  0x3a, 0x07, 0x04, 0x3e, 0x8f, 0xab, 0xeb, 0xbd, 0x06, 0x16, 0xa9, 0xbe,
  0x4c, 0xd6, 0x9a, 0xbd, 0xf6, 0xea, 0x69, 0xbe, 0x53, 0xde, 0x8c, 0xbc,
  0xd5, 0x56, 0x40, 0xbe, 0x69, 0x31, 0x2a, 0x3e, 0x84, 0x4e, 0xc2, 0xbb,
  0x45, 0xae, 0x53, 0xbe, 0x6b, 0x67, 0x7c, 0xbe, 0x83, 0x94, 0x87, 0xbd,
  0x1c, 0xa0, 0x50, 0xbe, 0xe3, 0x91, 0xde, 0xbd, 0xe3, 0xc5, 0x6c, 0xbe,
  0xd3, 0xb4, 0x64, 0xbe, 0x56, 0x1f, 0x3d, 0x3e, 0x79, 0xad, 0xbb, 0x3e,
  0x65, 0x5d, 0x82, 0xbe, 0xc8, 0x96, 0xa6, 0x3d, 0xaa, 0xb8, 0xd3, 0xbe,
  0x00, 0x4c, 0x40, 0x3d, 0x6f, 0x03, 0xbd, 0xbe, 0x9d, 0x71, 0x20, 0xbe,
  0xca, 0xf0, 0x8a, 0xbe, 0x78, 0xdd, 0xbf, 0x3c, 0x0e, 0xaf, 0x15, 0xbd,
  0x72, 0x7b, 0xee, 0xbb, 0x64, 0xc8, 0x23, 0x3e, 0xeb, 0x2b, 0x16, 0xbe,
  0x5a, 0x1b, 0xa4, 0x3d, 0xb1, 0x9e, 0x41, 0xbe, 0x3a, 0x2a, 0x5b, 0x3e,
  0xb4, 0xd2, 0xca, 0x3e, 0xb6, 0x1f, 0x6f, 0xbe, 0xca, 0x39, 0x69, 0x3d,
  0x0b, 0x03, 0xe4, 0x3c, 0x73, 0x86, 0x5e, 0x3d, 0x96, 0xca, 0xdf, 0xbd,
  0xaa, 0x8c, 0xec, 0x3d, 0xf5, 0x35, 0x18, 0x3e, 0xf5, 0x08, 0xa0, 0x3e,
  0xa6, 0xbf, 0x05, 0xbe, 0x83, 0xd9, 0xf2, 0xbe, 0x2e, 0xdc, 0x8f, 0x3e,
  0x9b, 0x20, 0x0c, 0xbc, 0xb7, 0x01, 0x30, 0x3e, 0x78, 0xc8, 0x48, 0xbd,
  0xc3, 0x84, 0xb9, 0x3e, 0x61, 0x15, 0x9f, 0x3e, 0x11, 0x80, 0x73, 0xbd,
  0x87, 0x81, 0x16, 0x3e, 0x58, 0xda, 0x0b, 0xbd, 0x65, 0xaa, 0xa6, 0x3e,
  0x11, 0x4d, 0xe5, 0xbd, 0x42, 0x74, 0x36, 0x3e, 0x6a, 0xaa, 0xcd, 0x3b,
  0xb1, 0x85, 0x74, 0x3e, 0xa8, 0x9d, 0xf4, 0xbd, 0x47, 0x1d, 0x4b, 0xbe,
  0x28, 0x8a, 0xe3, 0xbd, 0x1f, 0x2c, 0xc1, 0xbe, 0xf0, 0xb8, 0x84, 0x3d,
  0x53, 0xbe, 0x8f, 0xbe, 0xb8, 0x25, 0x2d, 0x3e, 0xf5, 0xcb, 0x72, 0x3d,
  0x92, 0x1d, 0x4e, 0xbe, 0xf1, 0xc6, 0x81, 0x3e, 0x48, 0x57, 0x50, 0xbe,
  0x3e, 0xb2, 0x8d, 0x3c, 0xfe, 0x38, 0x6e, 0xbe, 0x47, 0x59, 0x56, 0x3d,
  0x9d, 0xb4, 0xa6, 0x3b, 0x6e, 0xfe, 0x9d, 0xbc, 0x2b, 0x46, 0x90, 0xbe,
  0x2d, 0xec, 0x75, 0xbe, 0x30, 0x5b, 0x67, 0x3e, 0xd4, 0x92, 0xa8, 0x3d,
  0x5f, 0x3a, 0x0f, 0xbe, 0x2c, 0x2b, 0xb5, 0xbd, 0xe3, 0x95, 0x35, 0x3e,
  0x90, 0x55, 0xc0, 0x3e, 0x94, 0x4d, 0xa9, 0x3d, 0x65, 0xfc, 0xbb, 0xbd,
  0x8e, 0x8c, 0x27, 0x3d, 0x56, 0x90, 0xdd, 0xbb, 0x7e, 0x13, 0xba, 0x3d,
  0x80, 0xa8, 0xbe, 0x3d, 0x3d, 0x13, 0x27, 0x3e, 0x7a, 0xe6, 0xbc, 0xbd,
  0x65, 0x4c, 0xcd, 0xbd, 0x8f, 0xfb, 0xff, 0xbd, 0xbc, 0x6b, 0x81, 0x3e,
  0xab, 0xc8, 0x00, 0xbe, 0x3c, 0x8e, 0xa2, 0x3e, 0x93, 0xab, 0xd0, 0xbd,
  0xb7, 0x00, 0x60, 0x3e, 0x36, 0xef, 0x81, 0x3e, 0xe6, 0xca, 0xba, 0x3d,
  0xb8, 0x2a, 0x29, 0x3e, 0xa4, 0x2f, 0x60, 0x3e, 0x31, 0x26, 0x1b, 0xbd,
  0xe1, 0x17, 0x88, 0xbd, 0x38, 0x66, 0x3d, 0x3e, 0x5a, 0xd3, 0x4c, 0xbe,
  0x33, 0x7b, 0x11, 0x3c, 0x15, 0xa2, 0x0d, 0xbc, 0x29, 0xd6, 0x99, 0x3e,
  0x23, 0x3e, 0xae, 0xbd, 0xda, 0xa8, 0x46, 0xbe, 0xde, 0xf6, 0x09, 0xbe,
  0x95, 0xe4, 0xf0, 0x3c, 0xfb, 0xcb, 0x0d, 0xbf, 0x68, 0x92, 0xa5, 0x3d,
  0x68, 0x27, 0xed, 0x3d, 0xf4, 0xcf, 0xf5, 0x3d, 0x8a, 0x0a, 0x8a, 0xbe,
  0x78, 0xe4, 0xcc, 0x3d, 0x40, 0x9c, 0xa2, 0xbe, 0x7f, 0x2b, 0xc1, 0xbe,
  0x93, 0x5c, 0x1e, 0xbf, 0xa3, 0xa2, 0x4f, 0x3b, 0x29, 0x34, 0x85, 0xbe,
  0x91, 0xcd, 0xc1, 0x3d, 0x7f, 0x8c, 0xb8, 0xbe, 0x89, 0x78, 0x25, 0xbe,
  0x3e, 0xb8, 0xb0, 0xbe, 0xb0, 0xa0, 0x06, 0xbd, 0xfa, 0xc3, 0x2a, 0xbf,
  0x50, 0x65, 0xde, 0xbd, 0xd7, 0x1c, 0xaa, 0xbe, 0x9c, 0x96, 0x70, 0xbd,
  0x10, 0x6b, 0xbf, 0xbe, 0x4c, 0x93, 0x3d, 0xbc, 0xae, 0x79, 0xac, 0xbe,
  0x57, 0x31, 0x01, 0xbd, 0xc8, 0xc9, 0x44, 0xbe, 0x99, 0xcd, 0xa3, 0x3d,
  0xcd, 0x70, 0x91, 0xbe, 0xbe, 0xfc, 0x14, 0xbd, 0x99, 0xf6, 0x7c, 0xbe,
  0x55, 0xf9, 0x2a, 0x3c, 0xb3, 0x0e, 0x98, 0xbc, 0xb7, 0x76, 0x19, 0x3d,
  0xd2, 0xa0, 0xeb, 0xbe, 0xee, 0x54, 0x2c, 0x3e, 0x6c, 0x7f, 0x4b, 0xbe,
  0x81, 0x87, 0x1c, 0x3e, 0x9d, 0x02, 0x18, 0xbe, 0xea, 0x62, 0x19, 0xbe,
  0x2d, 0xe3, 0x27, 0xbe, 0x4f, 0xd3, 0xee, 0x38, 0xdf, 0x33, 0xe0, 0xbd,
  0x68, 0x81, 0xd1, 0x3d, 0x3a, 0x40, 0x69, 0xbe, 0xff, 0xaf, 0x3a, 0xbe,
  0x82, 0x56, 0xab, 0xbc, 0x83, 0xc5, 0x30, 0x3d, 0x99, 0x8e, 0x07, 0xbd,
  0x77, 0xe3, 0xff, 0xbc, 0x0d, 0x14, 0x06, 0x3d, 0x85, 0xfc, 0x50, 0x3e,
  0x20, 0xcc, 0x8b, 0xbd, 0x78, 0x72, 0x3e, 0x3e, 0xb7, 0x84, 0x3f, 0xbe,
  0xf0, 0x33, 0x82, 0x3d, 0x88, 0x12, 0x33, 0x3e, 0xbe, 0x0e, 0x3b, 0x3e,
  0x40, 0x62, 0x43, 0x3e, 0x63, 0x26, 0x0c, 0xbe, 0x0c, 0x92, 0xc0, 0x3c,
  0x4d, 0x32, 0xbe, 0xbb, 0x34, 0x42, 0xad, 0x3d, 0x87, 0x07, 0x42, 0xbd,
  0xb4, 0x09, 0x87, 0xbd, 0x0e, 0xad, 0xab, 0xbd, 0x2e, 0x8c, 0x22, 0xbe,
  0x47, 0xbb, 0x63, 0x3c, 0x95, 0x22, 0x02, 0xbe, 0x92, 0xaf, 0x3e, 0xbe,
  0xb9, 0x9e, 0xc8, 0xbd, 0x1a, 0x0d, 0xde, 0xbd, 0xb6, 0x37, 0x8a, 0xbd,
  0x02, 0xfd, 0x21, 0xbd, 0xcb, 0x3c, 0x86, 0x3c, 0xb9, 0x2b, 0x8b, 0xbe,
  0x95, 0x88, 0xdf, 0xbd, 0xcd, 0x0c, 0x81, 0x3e, 0xd6, 0x20, 0xf0, 0xbd,
  0xe9, 0x8c, 0x29, 0x3d, 0x0b, 0xa2, 0x3d, 0xbe, 0x05, 0xae, 0x71, 0x3d,
  0x91, 0xa5, 0xe2, 0xbd, 0x59, 0x6f, 0x55, 0x3e, 0xe5, 0x30, 0x07, 0xbf,
  0x2f, 0x46, 0x45, 0x3e, 0xb7, 0xfe, 0x22, 0xbf, 0xe1, 0x2d, 0xce, 0x3d,
  0x6a, 0xf0, 0x31, 0xbe, 0xe9, 0xff, 0xc7, 0xbe, 0x7d, 0x6a, 0xba, 0xbd,
  0x5f, 0xd3, 0xd0, 0x3d, 0x7f, 0x29, 0x03, 0xbf, 0x32, 0xb2, 0xfd, 0x3d,
  0x93, 0x22, 0x67, 0x3e, 0x6a, 0x0a, 0x18, 0x3c, 0x66, 0x9b, 0x09, 0x3e,
  0x0b, 0x07, 0xf9, 0x3d, 0x31, 0x6b, 0x8e, 0x3c, 0xbd, 0x52, 0xff, 0x3d,
  0xac, 0xea, 0xb7, 0xbd, 0x20, 0x2d, 0xd2, 0x3d, 0x3d, 0x7c, 0x69, 0xbf,
  0xa8, 0xec, 0x99, 0x3c, 0x4d, 0xa8, 0x75, 0xbc, 0x02, 0x50, 0x2c, 0xbe,
  0x3b, 0x59, 0x13, 0x3d, 0x08, 0x67, 0xa0, 0x3e, 0x2c, 0xaa, 0xdd, 0xbc,
  0x0e, 0x93, 0xae, 0x3d, 0x5b, 0xd2, 0x8f, 0x3e, 0xf0, 0xe8, 0x66, 0x3d,
  0x6d, 0xea, 0xc6, 0x3b, 0x91, 0xea, 0x6c, 0x3d, 0x73, 0xb5, 0x9c, 0x3d,
  0x73, 0x2a, 0x20, 0x3e, 0x2b, 0x69, 0xa6, 0x3d, 0x0a, 0xb3, 0xb2, 0x3c,
  0xa4, 0x5d, 0x0d, 0xbf, 0xd2, 0x60, 0xc5, 0xbc, 0x8b, 0x06, 0x9b, 0xbc,
  0x22, 0x4e, 0xb9, 0xbd, 0x78, 0xa3, 0x22, 0xbe, 0xed, 0x07, 0x27, 0x3e,
  0x19, 0x5f, 0x22, 0xbe, 0x74, 0xa1, 0x1b, 0x3e, 0xdc, 0xf4, 0x88, 0x3e,
  0x56, 0xdc, 0xd6, 0x3d, 0x8f, 0x0c, 0x1e, 0xbd, 0xb0, 0x83, 0xe1, 0x3d,
  0x35, 0xb6, 0x96, 0x3e, 0xb1, 0xfe, 0x26, 0x3e, 0xca, 0x64, 0xe6, 0x3d,
  0x59, 0xdd, 0x09, 0x3e, 0x08, 0x1a, 0x03, 0xbf, 0xce, 0x31, 0xe0, 0x3d,
  0xb8, 0x96, 0x05, 0xbe, 0x91, 0xb5, 0xe0, 0xbc, 0x46, 0xaf, 0x17, 0xbd,
  0x10, 0x21, 0x40, 0x3c, 0x15, 0x21, 0x69, 0xbe, 0x58, 0xa6, 0x21, 0x3e,
  0xeb, 0x23, 0x4f, 0x3e, 0xc2, 0x30, 0x84, 0x3d, 0xcc, 0x1b, 0xdc, 0xbd,
  0xd0, 0x7c, 0x0d, 0x3e, 0x4b, 0x88, 0x2d, 0xbe, 0x98, 0x4d, 0x16, 0xbe,
  0xf1, 0x12, 0x94, 0x3d, 0x70, 0x46, 0x34, 0xbd, 0xa4, 0x6b, 0x08, 0xbf,
  0xca, 0xe1, 0x76, 0xbd, 0x9c, 0xbb, 0xb4, 0xbc, 0x3e, 0xdb, 0x2f, 0xbe,
  0x4a, 0x6b, 0x2a, 0xbd, 0xe1, 0xd2, 0xd8, 0x3d, 0x52, 0xa7, 0x18, 0xbe,
  0x1b, 0x42, 0x21, 0x3d, 0x82, 0xcd, 0x8c, 0x3d, 0x3f, 0xfe, 0x19, 0x3e,
  0xc9, 0xde, 0x28, 0xbe, 0x93, 0x00, 0xbc, 0x3d, 0xb3, 0x63, 0x06, 0xbf,
  0x76, 0x45, 0x9d, 0xbe, 0xcc, 0xd3, 0x61, 0x3d, 0x7f, 0x58, 0xa2, 0xbe,
  0x0f, 0xe1, 0x25, 0xbf, 0xba, 0xf8, 0xd6, 0x3d, 0x53, 0x3e, 0xf4, 0xbc,
  0xc5, 0x67, 0x33, 0xbe, 0xc4, 0xd5, 0xf8, 0x3d, 0x9f, 0x9b, 0x30, 0x3c,
  0xb8, 0x32, 0x6e, 0x3d, 0x3e, 0xb0, 0xa5, 0x3d, 0xb5, 0xe7, 0xf3, 0x3d,
  0x48, 0xbf, 0x76, 0x3d, 0x18, 0x8f, 0x24, 0xbe, 0xae, 0xa0, 0xe3, 0xbd,
  0xb7, 0x9a, 0x29, 0xbe, 0x53, 0x66, 0x1d, 0x3e, 0xc2, 0x18, 0xd9, 0xbe,
  0xdb, 0x4b, 0x8f, 0xbd, 0x3f, 0x14, 0x73, 0xbd, 0x5e, 0x0e, 0x05, 0x3e,
  0xdb, 0x6c, 0x8f, 0xbb, 0x94, 0x53, 0xf3, 0xbd, 0x3a, 0x42, 0x3e, 0xbd,
  0x85, 0xb2, 0x53, 0x3b, 0x8a, 0xd0, 0x4e, 0xbd, 0x1d, 0xe6, 0x8f, 0xbe,
  0xd5, 0xe1, 0x21, 0xbc, 0xd0, 0xf6, 0x82, 0x3d, 0xe2, 0x5e, 0x01, 0x3e,
  0x1a, 0x31, 0x89, 0xbe, 0x70, 0x1f, 0x5a, 0xbe, 0x84, 0x60, 0xdf, 0x3d,
  0xe3, 0x4d, 0x40, 0xbe, 0xd2, 0x1b, 0x0d, 0xbd, 0xe8, 0xe6, 0x2a, 0xbe,
  0x43, 0x99, 0x09, 0xbe, 0x4e, 0x0b, 0x8a, 0xbd, 0x1a, 0x64, 0x6a, 0xbe,
  0x26, 0xd9, 0xa9, 0x3d, 0xf9, 0x21, 0xc7, 0x3c, 0x6c, 0xaa, 0x03, 0xbe,
  0xc9, 0x99, 0x82, 0xbe, 0xe4, 0x7e, 0x0a, 0x3e, 0x0f, 0x00, 0x93, 0x3d,
  0x0c, 0x5f, 0x73, 0xbd, 0x92, 0x85, 0x30, 0xbe, 0x00, 0x80, 0xef, 0xbd,
  0x20, 0x4a, 0xf5, 0x3c, 0xa1, 0xeb, 0x13, 0xbe, 0xe4, 0xb5, 0x69, 0x3d,
  0x77, 0xea, 0x55, 0xbe, 0xb9, 0x0f, 0x86, 0xbe, 0x41, 0x2e, 0x63, 0xbe,
  0xa1, 0x05, 0x1d, 0xbe, 0x09, 0xaa, 0x04, 0x3e, 0x9c, 0x62, 0xd8, 0x3d,
  0x30, 0xa7, 0x00, 0xbe, 0x59, 0xcf, 0xc6, 0xbc, 0x1d, 0x98, 0x61, 0xbe,
  0x45, 0x30, 0x4a, 0xbe, 0xa8, 0x5a, 0xf9, 0x3d, 0x5c, 0xaa, 0x8b, 0xb9,
  0x44, 0x4b, 0x12, 0xbd, 0x70, 0x96, 0xb1, 0xbd, 0x40, 0xf1, 0x79, 0x3d,
  0x67, 0x9e, 0xd9, 0x3c, 0x22, 0x92, 0x90, 0x3d, 0xd0, 0x89, 0xd2, 0xbd,
  0x56, 0x67, 0x80, 0xbd, 0x0d, 0x66, 0x2e, 0xbe, 0xcd, 0xc8, 0x81, 0xbe,
  0x7b, 0xe3, 0x15, 0xbd, 0x92, 0x9b, 0x9a, 0x3d, 0x6a, 0x7e, 0x86, 0xbe,
  0xe4, 0x87, 0x2c, 0xbe, 0xf6, 0xd6, 0x58, 0xbe, 0xcb, 0xb3, 0x19, 0xbe,
  0x58, 0x33, 0x34, 0xbd, 0xa7, 0x6d, 0xd3, 0x3d, 0x07, 0x71, 0x08, 0xbe,
  0xa8, 0xa1, 0x98, 0x3d, 0x71, 0x10, 0x0c, 0xbe, 0x86, 0x09, 0x83, 0x3d,
  0xdc, 0xc5, 0x11, 0xbd, 0x9e, 0x22, 0xac, 0xbd, 0xcb, 0x07, 0x88, 0x3d,
  0xe0, 0x16, 0xb1, 0xbb, 0xac, 0x09, 0x29, 0xbd, 0x2a, 0x66, 0x54, 0xbd,
  0x9f, 0x2a, 0x85, 0xbd, 0xd0, 0x26, 0x55, 0x3c, 0x1f, 0x78, 0x29, 0x3c,
  0xc9, 0xe5, 0x07, 0xbd, 0x0d, 0xe9, 0x5b, 0xbe, 0x4f, 0x69, 0x7e, 0xbd,
  0xdf, 0x86, 0x10, 0xbe, 0x2c, 0xf4, 0x9a, 0x3d, 0x89, 0x52, 0xe1, 0xbd,
  0x23, 0xa2, 0x39, 0xbe, 0x20, 0x27, 0x78, 0xbe, 0x88, 0x77, 0x81, 0xbe,
  0xb3, 0x25, 0x9f, 0xbd, 0x3d, 0xe2, 0x98, 0x3d, 0xee, 0xc6, 0x7e, 0xbc,
  0x6c, 0x49, 0x2f, 0xbe, 0x21, 0xa0, 0xaf, 0x3d, 0x55, 0x67, 0x32, 0xbe,
  0xa3, 0x6a, 0xd3, 0x3d, 0xe2, 0x30, 0x61, 0xbe, 0x7e, 0x7f, 0x86, 0xbe,
  0xdf, 0x9a, 0x25, 0x3c, 0x74, 0xf7, 0x72, 0xbe, 0xe5, 0xbb, 0x6d, 0xbe,
  0x57, 0xcb, 0x1c, 0xbe, 0xb6, 0xe2, 0x6e, 0xbe, 0x35, 0xc2, 0x7b, 0xbd,
  0xb9, 0xd2, 0xc0, 0xbd, 0x6f, 0xd0, 0x36, 0xbe, 0xfa, 0x27, 0xe9, 0x3d,
  0x7a, 0x34, 0x21, 0xbe, 0x0a, 0xdb, 0x8c, 0xbe, 0xc9, 0x7c, 0x96, 0xbe,
  0x36, 0xdd, 0x90, 0x3c, 0xb7, 0x91, 0x84, 0xbe, 0xe1, 0x79, 0x4e, 0xbe,
  0x4b, 0xa9, 0x22, 0xbe, 0x36, 0x7b, 0x8a, 0xbe, 0x08, 0x84, 0x24, 0xbe,
  0x03, 0x1c, 0x90, 0xbd, 0xec, 0x1f, 0x04, 0xbe, 0xa4, 0xb9, 0x45, 0xbe,
  0xf8, 0x34, 0x54, 0xbe, 0xe7, 0xbe, 0x7f, 0xbe, 0xdf, 0x62, 0x22, 0xbe,
  0x14, 0xbc, 0xb3, 0x3d, 0x40, 0xa4, 0x35, 0xbe, 0xff, 0xcd, 0x6e, 0xbe,
  0x93, 0xb8, 0x1e, 0xbe, 0x3d, 0xfd, 0x59, 0xbe, 0x94, 0xa1, 0x80, 0xbd,
  0xee, 0x9f, 0xb0, 0xbe, 0x1c, 0x22, 0xdb, 0xbd, 0xdf, 0x20, 0xff, 0xbd,
  0xf2, 0xe2, 0xac, 0x3d, 0x47, 0x0f, 0xae, 0xbd, 0x4f, 0x7c, 0x93, 0xbe,
  0x18, 0x3f, 0xe7, 0x3d, 0x36, 0x54, 0x85, 0xbe, 0xb0, 0x87, 0x5c, 0xbe,
  0xa3, 0xba, 0x33, 0xbd, 0xce, 0x0a, 0x2c, 0xbe, 0x8b, 0x56, 0x65, 0x3d,
  0x70, 0x60, 0xd6, 0xbd, 0x6b, 0x9e, 0xce, 0xbd, 0x07, 0x8d, 0x2d, 0x3e,
  0xa5, 0xbd, 0xdf, 0x3c, 0x30, 0x55, 0x39, 0x3d, 0x34, 0xf3, 0x7b, 0xbc,
  0x4b, 0x25, 0x61, 0xbe, 0x70, 0x63, 0xcf, 0x3c, 0xac, 0x90, 0x6e, 0xbe,
  0xb6, 0x45, 0x3a, 0xbe, 0x42, 0xe1, 0xf1, 0x3d, 0x53, 0xcd, 0x13, 0xbe,
  0xe4, 0x35, 0xc4, 0x3c, 0xfe, 0x36, 0x4c, 0x3d, 0xa2, 0x61, 0x3f, 0xbe,
  0xf1, 0x19, 0x57, 0xbe, 0x08, 0xf2, 0x8c, 0xbe, 0x7c, 0x1e, 0x1f, 0xbe,
  0xa0, 0x90, 0x32, 0x3e, 0x5f, 0x23, 0xf8, 0xbd, 0x5d, 0xbf, 0x80, 0x3c,
  0x8c, 0xc5, 0xea, 0xbc, 0xaa, 0x32, 0x43, 0xbd, 0x12, 0x94, 0x84, 0x3d,
  0xe4, 0x5a, 0x51, 0xbe, 0x9a, 0xdb, 0x5a, 0x3d, 0xc2, 0x4e, 0x11, 0x3e,
  0x49, 0xd4, 0xa6, 0xbd, 0x2b, 0x5d, 0x98, 0xbd, 0xde, 0xa9, 0xf0, 0x3d,
  0xb9, 0x58, 0xec, 0xbd, 0x8d, 0x80, 0xa4, 0xbd, 0xbf, 0x7c, 0x35, 0xbe,
  0x22, 0x1f, 0x7c, 0xbe, 0xe4, 0x06, 0x37, 0x3d, 0x4e, 0xd4, 0xfa, 0xbd,
  0x1c, 0xa8, 0xbe, 0xbd, 0x2f, 0x8b, 0xa8, 0x3d, 0x49, 0x74, 0x3d, 0x3e,
  0x47, 0xeb, 0x95, 0x3d, 0xe4, 0x44, 0x00, 0x3e, 0x0e, 0x45, 0x69, 0xbe,
  0x58, 0xcb, 0x0e, 0x3b, 0x91, 0xbd, 0xe6, 0x3d, 0x7f, 0x11, 0xfe, 0xbc,
  0x60, 0xb9, 0x06, 0xbd, 0xd3, 0x44, 0x7a, 0xbe, 0xa2, 0x36, 0x14, 0xbd,
  0xd2, 0xdf, 0x0e, 0x3e, 0x1f, 0xe6, 0x84, 0xbe, 0x7e, 0x45, 0x2a, 0x3c,
  0x1f, 0x93, 0xf0, 0xbc, 0x77, 0xb7, 0x25, 0xbe, 0x2e, 0xed, 0x8f, 0xbd,
  0xb3, 0x37, 0xcb, 0xbd, 0x5a, 0x4b, 0x43, 0xbe, 0xb1, 0x72, 0x03, 0x3d,
  0x6f, 0x6a, 0xa3, 0x3d, 0x50, 0x91, 0xe0, 0xbd, 0xa3, 0xfd, 0x91, 0x3c,
  0xc3, 0x46, 0x88, 0xbe, 0xad, 0x27, 0x17, 0x3e, 0xc9, 0xc4, 0xd4, 0xbc,
  0xba, 0x50, 0x29, 0xbc, 0x42, 0xc0, 0xdd, 0x3d, 0x38, 0xf3, 0x46, 0x3d,
  0xd7, 0xc1, 0x4f, 0xbd, 0x33, 0x1b, 0x20, 0xbd, 0xd4, 0xad, 0xc0, 0xbe,
  0x55, 0xd6, 0x13, 0xbe, 0xf5, 0xcc, 0xbc, 0xbd, 0xaa, 0xbd, 0xc3, 0x3d,
  0x80, 0x35, 0x09, 0x3d, 0x2d, 0xdd, 0x54, 0xbd, 0xe2, 0xbb, 0xfe, 0xbd,
  0x94, 0xda, 0x15, 0xbe, 0xba, 0x20, 0x28, 0x3d, 0x97, 0xdb, 0x2f, 0xbe,
  0x97, 0xbd, 0x1f, 0xbe, 0xb1, 0x77, 0x4d, 0xbe, 0x74, 0xcc, 0x60, 0xbe,
  0x68, 0xfa, 0x03, 0x3e, 0xa8, 0x86, 0x41, 0xbe, 0x60, 0xb5, 0xd0, 0xbc,
  0x1c, 0x30, 0x4f, 0xbe, 0x28, 0x1e, 0x5c, 0xbe, 0xb9, 0x5f, 0x9e, 0xbd,
  0xa8, 0xfb, 0xdf, 0xbd, 0x2f, 0x3d, 0x29, 0x3d, 0x84, 0x1d, 0x25, 0xbd,
  0x25, 0x06, 0x6c, 0xbe, 0xc1, 0x46, 0x0c, 0xbe, 0x15, 0x1b, 0x27, 0xbc,
  0xb2, 0x6f, 0x76, 0xbe, 0xfc, 0xfc, 0x8a, 0x3d, 0x05, 0x8c, 0xba, 0x3d,
  0x7d, 0xc5, 0x5b, 0xbd, 0xdf, 0x75, 0x79, 0xbe, 0xab, 0x2c, 0xc8, 0x3d,
  0xea, 0x9b, 0xb8, 0x3d, 0x45, 0x2b, 0x2d, 0xbf, 0x8d, 0xfd, 0x83, 0xbe,
  0x8e, 0x49, 0x2c, 0xbe, 0xe8, 0x06, 0x34, 0xbe, 0x14, 0xcb, 0x94, 0xbe,
  0xdc, 0x67, 0xeb, 0xbd, 0xfb, 0x93, 0x98, 0xbe, 0x01, 0x66, 0xd0, 0xbd,
  0x38, 0xc1, 0xe2, 0x3c, 0xed, 0x54, 0x9e, 0x3e, 0x4c, 0xdd, 0x4b, 0xbd,
  0x85, 0x25, 0xf9, 0x3d, 0xd8, 0x6b, 0xda, 0xbd, 0xaa, 0x77, 0x0b, 0xbe,
  0xaf, 0x14, 0x94, 0x3e, 0x12, 0x07, 0xf5, 0x3d, 0x66, 0xd3, 0x4a, 0xbe,
  0xb0, 0x3f, 0xaf, 0xbe, 0x61, 0x94, 0xc8, 0xbd, 0x9b, 0xa6, 0x80, 0xbe,
  0xaa, 0x08, 0x4d, 0xbd, 0x74, 0x67, 0xb2, 0x3d, 0x3b, 0xac, 0xf1, 0xbb,
  0x6a, 0x5e, 0xdc, 0xbe, 0x51, 0x99, 0x2a, 0x3e, 0x34, 0x30, 0xe6, 0x3d,
  0xa0, 0x7b, 0xa1, 0x3d, 0x5c, 0x04, 0xb9, 0x3c, 0x9b, 0x19, 0x2c, 0xbe,
  0xd2, 0x9f, 0x83, 0xbe, 0x82, 0x37, 0x68, 0x3e, 0x0b, 0xe6, 0xa0, 0x3c,
  0xeb, 0xb8, 0x7a, 0xbe, 0x82, 0x5f, 0x8c, 0xbe, 0xb2, 0x89, 0x17, 0xbd,
  0x6f, 0xd9, 0xdb, 0xbd, 0x94, 0x5a, 0x97, 0xbe, 0xad, 0xe5, 0xeb, 0xbc,
  0xf0, 0x66, 0x46, 0xbd, 0x6d, 0xe4, 0x76, 0xbe, 0xde, 0xaa, 0x67, 0x3e,
  0xec, 0x64, 0x56, 0x3e, 0x10, 0x63, 0xff, 0x3d, 0x36, 0x70, 0xa1, 0xbc,
  0xcc, 0xc3, 0x89, 0xbd, 0x1d, 0xd7, 0x5c, 0xbe, 0x31, 0xe8, 0x71, 0xbd,
  0x8e, 0xad, 0xbe, 0x3d, 0xa3, 0x65, 0xd2, 0xbe, 0x13, 0xf8, 0x71, 0xbd,
  0xdb, 0xe5, 0xc6, 0xbe, 0x3d, 0xe2, 0xa9, 0x3d, 0x8b, 0x12, 0x60, 0xbe,
  0xa8, 0xfd, 0x4a, 0x3e, 0x0d, 0xde, 0x94, 0xbe, 0x09, 0xc5, 0xe3, 0xbe,
  0xf9, 0x27, 0x7e, 0xbe, 0xf5, 0x8b, 0xd2, 0xbe, 0xa4, 0x76, 0xc0, 0xbe,
  0x05, 0x9a, 0x67, 0x3e, 0x72, 0x67, 0x1b, 0xbe, 0x8d, 0x51, 0x32, 0xbe,
  0xbb, 0xb6, 0x97, 0x3e, 0x92, 0xf7, 0x06, 0x3e, 0x64, 0xc4, 0x54, 0xbb,
  0xd6, 0x1a, 0x6f, 0x3d, 0xeb, 0x93, 0x67, 0x3e, 0x25, 0xac, 0x8b, 0x3e,
  0xf2, 0xbb, 0x2f, 0x3e, 0x7f, 0x37, 0xc0, 0x3d, 0xaa, 0x09, 0x45, 0x3d,
  0x09, 0x84, 0x11, 0x3c, 0x1c, 0xf9, 0xae, 0x3d, 0xb0, 0x62, 0x8f, 0x3d,
  0x26, 0x59, 0xa2, 0x3d, 0x06, 0x33, 0xe1, 0x3e, 0x1a, 0xe5, 0x2c, 0xbe,
  0xad, 0x27, 0x0a, 0xbf, 0x4e, 0x3f, 0x5a, 0x3e, 0xfb, 0xee, 0x9b, 0x3d,
  0x0c, 0x43, 0x1e, 0xbd, 0xc8, 0xb8, 0xf1, 0xbd, 0x51, 0x8e, 0x7c, 0x3e,
  0x03, 0x41, 0x30, 0xbd, 0x15, 0x14, 0x91, 0x3d, 0xfe, 0x61, 0x2d, 0xbe,
  0xcc, 0xe4, 0x92, 0x3d, 0x9d, 0xf2, 0x79, 0x3e, 0x74, 0x80, 0x67, 0x3d,
  0x58, 0xe7, 0x15, 0xbd, 0xd9, 0x1d, 0xb1, 0x3d, 0x8a, 0x4e, 0x82, 0xbe,
  0x34, 0x15, 0x81, 0x3c, 0x1d, 0xf7, 0xc0, 0xbe, 0x71, 0x1a, 0xb0, 0xbe,
  0xf0, 0x13, 0x10, 0xbf, 0xc3, 0x0b, 0xa2, 0xbd, 0xe8, 0x32, 0xec, 0xbd,
  0xea, 0xc9, 0xe6, 0xbe, 0x78, 0xa8, 0x31, 0x3e, 0xd9, 0x77, 0x0a, 0xbc,
  0x7e, 0xb6, 0x06, 0xbe, 0xab, 0x0f, 0x2f, 0x3e, 0xcc, 0x10, 0x36, 0x3d,
  0xe2, 0xab, 0xa9, 0xbe, 0xe3, 0x24, 0x1b, 0xbe, 0xd6, 0x5e, 0x44, 0xbd,
  0x35, 0xcc, 0x1e, 0xbf, 0x46, 0x74, 0x37, 0xbe, 0x48, 0x92, 0x70, 0x3e,
  0x3c, 0x6b, 0x51, 0xbe, 0xa6, 0x3b, 0x18, 0xbd, 0x98, 0xf3, 0x40, 0x3c,
  0x77, 0xd2, 0x1a, 0x3b, 0x9b, 0x3e, 0xb1, 0xbc, 0x41, 0xda, 0x96, 0xbc,
  0xef, 0x7d, 0xb7, 0xbe, 0x9e, 0xa3, 0x26, 0x3e, 0xbe, 0x66, 0xdc, 0xbe,
  0xaa, 0xda, 0xe4, 0xbc, 0x1a, 0x0a, 0xcb, 0xbe, 0x3c, 0x73, 0x3d, 0xbd,
  0x4f, 0x7d, 0xfb, 0xbe, 0x0e, 0x4b, 0xa0, 0x3d, 0x60, 0xd1, 0x6b, 0xbe,
  0xd4, 0xcf, 0x79, 0x3d, 0xe7, 0xce, 0xe0, 0x3d, 0x47, 0x45, 0x11, 0x3e,
  0xfe, 0x2e, 0x5f, 0x3e, 0xec, 0xc1, 0x1f, 0x3d, 0x6a, 0x35, 0x05, 0x3f,
  0x38, 0x4f, 0x92, 0x3d, 0xd7, 0x70, 0xb1, 0xbd, 0x6c, 0x06, 0x6a, 0xbe,
  0xd6, 0x25, 0x90, 0xbe, 0x34, 0xcb, 0x13, 0x3e, 0xe7, 0xa8, 0xe0, 0xbe,
  0xe6, 0x81, 0xe8, 0xbb, 0x0f, 0xaf, 0x38, 0xbe, 0xd2, 0x43, 0x46, 0xbc,
  0x61, 0x6f, 0xdc, 0xbd, 0x3e, 0xa4, 0xa4, 0x3d, 0xaf, 0x49, 0xe6, 0x3d,
  0x4e, 0xc5, 0x68, 0xbd, 0xde, 0x67, 0x14, 0x3e, 0x44, 0xef, 0x95, 0x3d,
  0x8c, 0x57, 0xd3, 0x3e, 0x84, 0xa3, 0x21, 0x3e, 0x21, 0x35, 0x04, 0x3e,
  0xc1, 0xd8, 0x56, 0xbe, 0x74, 0xad, 0x76, 0xbe, 0x15, 0x65, 0x22, 0x3e,
  0x22, 0xe1, 0x2f, 0xbf, 0x8a, 0xb4, 0xb4, 0x3d, 0x5f, 0x40, 0xd0, 0xbe,
  0x55, 0x6e, 0x80, 0x3d, 0xcc, 0x5a, 0xe2, 0xbe, 0xa5, 0xb1, 0xb2, 0x3d,
  0x2b, 0xb1, 0x4c, 0x3e, 0xa0, 0x33, 0xa8, 0x3d, 0x15, 0x16, 0xb3, 0x3d,
  0x92, 0xd9, 0x30, 0x3d, 0x43, 0x27, 0xca, 0x3e, 0x2c, 0xb6, 0xe7, 0x3c,
  0x34, 0x8e, 0x00, 0x3e, 0x55, 0x4d, 0x38, 0xbe, 0xf3, 0xdb, 0x8b, 0xbd,
  0xf3, 0x63, 0x8a, 0xbd, 0x68, 0xb2, 0x08, 0xbf, 0xe1, 0x90, 0x05, 0x3e,
  0xc7, 0x7b, 0xbf, 0xbd, 0xb7, 0xde, 0x43, 0x3e, 0x59, 0x7b, 0x0e, 0xbe,
  0x8f, 0x4f, 0x3f, 0x3e, 0x67, 0x3a, 0x97, 0x3a, 0x19, 0x75, 0x45, 0xbc,
  0x70, 0x77, 0x6b, 0xbd, 0x7a, 0x04, 0x63, 0xba, 0x92, 0x22, 0x18, 0x3e,
  0xab, 0x81, 0x77, 0x3e, 0x5b, 0x2d, 0x44, 0x3c, 0xea, 0x9b, 0x32, 0xbe,
  0x06, 0x9d, 0x33, 0xbe, 0xe6, 0x5f, 0xed, 0x3c, 0xe3, 0x40, 0xd6, 0xbe,
  0xcd, 0xf4, 0x05, 0xbd, 0x9d, 0xda, 0x1c, 0xbe, 0x74, 0x17, 0xe2, 0x3d,
  0x90, 0xd9, 0xb4, 0x3b, 0x18, 0x0f, 0x5a, 0x3d, 0x11, 0xcb, 0x20, 0x3e,
  0x00, 0xd5, 0xca, 0xbd, 0x39, 0x92, 0x33, 0xbe, 0x92, 0x9f, 0x33, 0x3d,
  0x62, 0xbb, 0xf8, 0xbc, 0x8d, 0xfa, 0x95, 0xbe, 0x3d, 0x28, 0x9b, 0x3d,
  0xa0, 0x9e, 0x8d, 0xbd, 0x57, 0x88, 0x96, 0xbe, 0xe0, 0x22, 0xdc, 0x3c,
  0x00, 0xc9, 0x1c, 0xbf, 0x34, 0xa1, 0x15, 0xbd, 0x24, 0x81, 0xec, 0xbd,
  0x47, 0xe1, 0x49, 0xbe, 0x4f, 0x3d, 0x9a, 0x3d, 0xaa, 0x17, 0x41, 0x3d,
  0x5e, 0x69, 0x2e, 0x3d, 0x0b, 0x93, 0x96, 0x3d, 0x9f, 0xd1, 0x3a, 0xbe,
  0xc1, 0x19, 0xa8, 0xbc, 0x84, 0xa9, 0x84, 0xbe, 0x8d, 0xef, 0xe0, 0x3d,
  0xf7, 0xe4, 0x98, 0xbe, 0x39, 0x80, 0xb7, 0xbd, 0xd5, 0xbd, 0xe3, 0x3c,
  0xcf, 0x01, 0x49, 0x3e, 0x27, 0x5c, 0x40, 0xbe, 0x91, 0x93, 0x92, 0x3c,
  0x53, 0x63, 0x50, 0x3c, 0xcc, 0x97, 0xb8, 0xbc, 0x26, 0x5a, 0x3e, 0xbd,
  0x3f, 0x7b, 0x38, 0xbe, 0x20, 0xa0, 0x4b, 0xbd, 0x6c, 0x38, 0xe0, 0x3c,
  0x7d, 0x31, 0x23, 0xbf, 0x38, 0x7d, 0x2c, 0xbe, 0x69, 0x99, 0xaa, 0xbd,
  0x01, 0x5f, 0xb5, 0x3d, 0xf4, 0xcc, 0xf9, 0xbd, 0xc4, 0x52, 0x5d, 0xbe,
  0xa8, 0x8d, 0x73, 0xbe, 0x75, 0x42, 0x35, 0xbe, 0x92, 0x8b, 0x0c, 0xbe,
  0xb9, 0xba, 0x66, 0x3e, 0xc7, 0xd7, 0x26, 0x3c, 0x86, 0xc1, 0xfa, 0x3c,
  0x62, 0xb9, 0x4a, 0x3d, 0x75, 0x66, 0xf3, 0xbd, 0x95, 0xec, 0x8b, 0xbe,
  0x9b, 0xc1, 0xe5, 0xbc, 0x2d, 0x03, 0x2c, 0xbe, 0xd7, 0xa5, 0x06, 0xbe,
  0xd6, 0xa4, 0x1c, 0x3f, 0xa2, 0xb6, 0x97, 0xbd, 0xa7, 0x07, 0x17, 0xbe,
  0x25, 0x0b, 0x6e, 0xbe, 0xd6, 0x98, 0xae, 0x3d, 0x09, 0x2b, 0x80, 0xbe,
  0x23, 0x0e, 0x85, 0x3c, 0xc2, 0xd3, 0x40, 0x3e, 0xfb, 0x68, 0x37, 0x3e,
  0x79, 0x6e, 0xba, 0xbd, 0x3a, 0xb7, 0x1c, 0x3e, 0x39, 0x5a, 0xec, 0xbd,
  0xab, 0x36, 0x5f, 0x3d, 0x38, 0x44, 0x05, 0xbd, 0x31, 0x76, 0xc6, 0xbe,
  0xb4, 0x93, 0x3a, 0xbe, 0x38, 0xd7, 0x98, 0x3e, 0xad, 0x13, 0xdd, 0xbd,
  0xfc, 0x89, 0x1e, 0xbe, 0x39, 0xb2, 0xc7, 0xbd, 0xc6, 0x5d, 0x0d, 0xbe,
  0x7a, 0xb7, 0x50, 0xbe, 0xd3, 0x39, 0x26, 0xbd, 0x33, 0xe6, 0xc2, 0xbd,
  0x7c, 0x31, 0x43, 0xbd, 0x28, 0xee, 0x3b, 0x3d, 0x37, 0xcb, 0x8d, 0xbd,
  0x9c, 0xcd, 0x1e, 0xbe, 0xb8, 0x8d, 0x3d, 0xbe, 0x8f, 0x2c, 0x02, 0xbd,
  0x58, 0x40, 0x09, 0xbf, 0xd0, 0x10, 0x4f, 0xbe, 0xe8, 0xdb, 0x0b, 0x3e,
  0x2b, 0x50, 0x8c, 0xbe, 0x1b, 0xde, 0x0b, 0xbe, 0x93, 0x9f, 0x96, 0xbe,
  0xa5, 0x09, 0x7a, 0xbe, 0x01, 0x56, 0x77, 0xbe, 0x98, 0x2d, 0x09, 0xbe,
  0x78, 0x7b, 0xbf, 0x3a, 0x48, 0x97, 0x7d, 0xbe, 0xeb, 0xdc, 0x1f, 0xbe,
  0x4c, 0x0a, 0xfe, 0xbd, 0x83, 0x9c, 0x54, 0xbe, 0xbd, 0xcc, 0x55, 0xbe,
  0x49, 0x1e, 0x2c, 0xbd, 0x9c, 0xca, 0xe1, 0x3c, 0x73, 0xee, 0x31, 0xbe,
  0xc7, 0xa7, 0x06, 0x3c, 0xcf, 0xd7, 0x52, 0x3e, 0x4c, 0xe5, 0x97, 0xbe,
  0xf5, 0x87, 0x33, 0x3e, 0x02, 0x73, 0xbf, 0x39, 0x48, 0x8a, 0xa6, 0xbd,
  0xc7, 0xad, 0xf4, 0xbd, 0x2a, 0x91, 0x8f, 0x3d, 0x9e, 0x90, 0x1f, 0xbd,
  0x67, 0xa4, 0xda, 0x3d, 0x5d, 0x01, 0x76, 0xbe, 0x13, 0x7d, 0x92, 0xbe,
  0x80, 0xd7, 0xa3, 0x3e, 0x96, 0x25, 0x6e, 0x3d, 0xfb, 0x2e, 0x6b, 0xbd,
  0xef, 0x1c, 0x4e, 0xbe, 0x87, 0xce, 0x8f, 0x3c, 0x6a, 0x7d, 0x8a, 0x3e,
  0x64, 0xf9, 0x6f, 0xbc, 0x32, 0x5a, 0x81, 0x3e, 0xa8, 0xde, 0xc6, 0x3c,
  0x1d, 0x40, 0xbb, 0x3c, 0x5d, 0xc1, 0x96, 0xbd, 0xa7, 0xa8, 0xe1, 0x3a,
  0xb9, 0xaf, 0x10, 0x3e, 0xec, 0x2c, 0xa1, 0x3e, 0xac, 0xe2, 0xca, 0xbd,
  0x52, 0xde, 0x55, 0xbe, 0xd9, 0xa2, 0x98, 0xbc, 0xce, 0x43, 0xe7, 0x3c,
  0x74, 0x17, 0x4f, 0x3e, 0x9a, 0xf8, 0x64, 0xbd, 0x5c, 0x42, 0x67, 0x3e,
  0xfc, 0xd2, 0xc6, 0x3a, 0x84, 0x17, 0x3e, 0x3d, 0xda, 0x93, 0x00, 0x3e,
  0xa0, 0x70, 0xeb, 0xbc, 0x5e, 0x0a, 0x58, 0x3d, 0x5c, 0x1a, 0xc8, 0x3a,
  0x0f, 0xb5, 0xad, 0x3d, 0xdb, 0xd2, 0xe0, 0x3d, 0xf0, 0xc5, 0x12, 0x3e,
  0x7e, 0x63, 0x99, 0x3e, 0xf2, 0xaa, 0x16, 0x3e, 0xf7, 0x7b, 0x44, 0xbe,
  0x99, 0x2c, 0x1e, 0xbf, 0xe4, 0x57, 0xb0, 0xbd, 0xd4, 0xb2, 0x12, 0xbc,
  0x3b, 0x14, 0x7a, 0x3b, 0x2e, 0x57, 0x9e, 0x3a, 0x06, 0xb6, 0xc2, 0xbd,
  0xc8, 0x3c, 0x34, 0x35, 0xc4, 0x9f, 0xf9, 0x3d, 0x7d, 0x6c, 0x4c, 0xbd,
  0xce, 0x85, 0x52, 0xbe, 0xc7, 0x14, 0xb8, 0xbe, 0xb9, 0x53, 0xcb, 0xbe,
  0x2a, 0x6e, 0x17, 0xbf, 0x3a, 0xb0, 0x23, 0x3e, 0x65, 0x09, 0x14, 0x3e,
  0x9b, 0x07, 0x30, 0xbe, 0xc5, 0x04, 0xe6, 0x3c, 0x6c, 0xca, 0x32, 0xbe,
  0xeb, 0xb0, 0x83, 0xbd, 0x05, 0xef, 0x78, 0x3f, 0x5e, 0x50, 0x8a, 0xbe,
  0xbe, 0xe2, 0xb3, 0xba, 0x40, 0x34, 0x63, 0xbe, 0x95, 0x40, 0x93, 0xbd,
  0xb8, 0x22, 0x0a, 0x3d, 0x01, 0xf2, 0xdc, 0xbb, 0x47, 0x1d, 0xd3, 0xbe,
  0x57, 0x04, 0xed, 0xbd, 0xcd, 0x3c, 0xc7, 0xbe, 0x0b, 0xca, 0x71, 0xbe,
  0x81, 0x82, 0x09, 0xbe, 0x52, 0xf8, 0x4a, 0x3d, 0x46, 0x8f, 0x5e, 0x3d,
  0x65, 0xc7, 0x5c, 0x3e, 0x83, 0xbb, 0x3d, 0xbd, 0xc8, 0x6c, 0x8b, 0x3f,
  0x15, 0x15, 0xf5, 0x3c, 0x7d, 0x59, 0xfd, 0x3d, 0x91, 0xbc, 0x97, 0x3c,
  0x93, 0xfc, 0x7e, 0xbc, 0x5c, 0x1e, 0x06, 0xbe, 0xe2, 0x4f, 0x8b, 0x3e,
  0x96, 0xd3, 0xb2, 0x3d, 0xc5, 0x1a, 0x8f, 0xbe, 0x52, 0xfb, 0x6b, 0xbe,
  0x81, 0xc5, 0x0f, 0x3d, 0x06, 0x61, 0x00, 0x3d, 0x77, 0x2c, 0x52, 0x3d,
  0xcf, 0x65, 0xce, 0xbe, 0xe7, 0xfd, 0x41, 0x3e, 0x30, 0x28, 0x33, 0xbd,
  0x7e, 0xb1, 0xaf, 0x3f, 0xdb, 0xe1, 0xa5, 0x3e, 0x7e, 0x9c, 0x5a, 0x3e,
  0xdc, 0x4f, 0x1b, 0xbe, 0xdd, 0x4e, 0xad, 0x3e, 0xc2, 0xe6, 0xe1, 0xbd,
  0xdc, 0x48, 0xbc, 0x3d, 0x65, 0xab, 0x8d, 0xbe, 0x43, 0xbb, 0x3e, 0xbd,
  0x7e, 0x5f, 0xb9, 0xbe, 0xfd, 0x06, 0x84, 0x3e, 0x6e, 0x5f, 0x11, 0xbe,
  0x3d, 0x2c, 0x47, 0xbe, 0xb9, 0xfd, 0x32, 0xbe, 0x32, 0xb0, 0x99, 0xbd,
  0x08, 0x27, 0x1e, 0xbd, 0xbd, 0xc7, 0x0f, 0x3f, 0x6d, 0x1b, 0x5b, 0xbe,
  0x2f, 0xe5, 0x8d, 0x3e, 0xbc, 0xea, 0x65, 0xbe, 0xd4, 0xb6, 0x42, 0x3e,
  0x75, 0x03, 0x4e, 0x3d, 0xee, 0x93, 0x16, 0xbe, 0x7f, 0xbe, 0xae, 0xbe,
  0x7f, 0xa5, 0xc6, 0xbe, 0x3c, 0xcc, 0x28, 0xbf, 0x2f, 0x32, 0xaf, 0x3e,
  0x82, 0x81, 0x71, 0x3e, 0x96, 0x6c, 0xa4, 0xbe, 0x3c, 0x82, 0x2a, 0xbe,
  0x59, 0x20, 0x6d, 0x3d, 0x0f, 0xa9, 0x4e, 0xbd, 0xce, 0x55, 0x8a, 0x3e,
  0xbb, 0x90, 0xad, 0xbd, 0x9b, 0x7a, 0x97, 0xbe, 0x71, 0xee, 0xb6, 0xbd,
  0xca, 0x68, 0x3e, 0x3e, 0x3c, 0xf0, 0x9a, 0xbe, 0x3c, 0x8d, 0x8f, 0xbd,
  0xf9, 0x9c, 0xa1, 0xbe, 0x62, 0xab, 0xa3, 0xbe, 0x50, 0x0b, 0x7c, 0xbe,
  0xe2, 0xd2, 0x90, 0x3d, 0xcf, 0xda, 0x4a, 0xbe, 0x42, 0x94, 0x5e, 0xbe,
  0x0a, 0x80, 0x45, 0x3e, 0x52, 0x5f, 0xaa, 0x3d, 0x70, 0x20, 0x83, 0x3d,
  0x7e, 0xd3, 0x66, 0x3e, 0x28, 0x7c, 0x34, 0xbe, 0xd6, 0x68, 0xc3, 0x3d,
  0xc0, 0x5d, 0x82, 0xbd, 0xad, 0x32, 0xf5, 0xbc, 0x61, 0x79, 0xa8, 0xbd,
  0xd6, 0xac, 0xcd, 0xbc, 0xde, 0x76, 0xef, 0xbd, 0xa4, 0x6c, 0xcf, 0xbd,
  0x04, 0x24, 0xb7, 0xbe, 0x60, 0x09, 0x22, 0x3b, 0xeb, 0x47, 0x5a, 0xbe,
  0x68, 0x6d, 0x29, 0xbe, 0x69, 0x95, 0x1e, 0xbe, 0x47, 0x81, 0xa2, 0xbe,
  0x34, 0xb9, 0x40, 0xbe, 0x67, 0x89, 0x94, 0xbe, 0x86, 0x9a, 0x26, 0x3e,
  0x0b, 0xf3, 0x0d, 0xbc, 0xd8, 0xa1, 0x48, 0xbd, 0x16, 0xa8, 0x17, 0xbe,
  0xe2, 0x78, 0x5f, 0x3d, 0x1f, 0xef, 0x24, 0xbd, 0x92, 0x3f, 0x14, 0xbe,
  0x2d, 0x08, 0x37, 0xbe, 0xaf, 0x55, 0x1b, 0xbd, 0x31, 0x6d, 0xf1, 0x3d,
  0x74, 0xd4, 0xa1, 0x3d, 0x77, 0x16, 0x7b, 0xbe, 0xfd, 0xb6, 0x72, 0x3c,
  0xbb, 0xc5, 0x5f, 0xbe, 0xb0, 0xbb, 0x13, 0x3d, 0x1b, 0x1c, 0x9e, 0x3d,
  0x2f, 0x3a, 0x8e, 0x3d, 0xe3, 0x91, 0x2a, 0x3d, 0x6a, 0x65, 0x04, 0x3e,
  0xec, 0x4a, 0x54, 0xbc, 0x64, 0x0b, 0x79, 0xbd, 0x18, 0x68, 0xc0, 0x3d,
  0x05, 0x5c, 0x07, 0xbe, 0xb0, 0x62, 0x3d, 0xbd, 0x8f, 0x8b, 0x39, 0x3e,
  0xc0, 0xbc, 0x81, 0xbd, 0xf3, 0xde, 0xf0, 0xbd, 0x64, 0xed, 0x84, 0xbd,
  0x02, 0xb4, 0x76, 0xbe, 0x76, 0xfd, 0x9f, 0xbe, 0x17, 0x7b, 0x90, 0xbd,
  0xf8, 0xfb, 0x23, 0x3c, 0x35, 0xf7, 0x09, 0x3e, 0xe6, 0xe9, 0x81, 0x3c,
  0xce, 0x5f, 0x00, 0xbe, 0x14, 0xb6, 0xfc, 0x3d, 0xaf, 0x5d, 0x84, 0xbd,
  0xe9, 0x89, 0x4d, 0xbe, 0x15, 0x7e, 0x19, 0x3e, 0x49, 0xae, 0x4a, 0xbe,
  0xe5, 0x8d, 0x15, 0xbe, 0x39, 0x87, 0x11, 0xbe, 0x0d, 0xe9, 0x1f, 0xbe,
  0x53, 0x6b, 0x11, 0x3e, 0x17, 0xe8, 0x97, 0xba, 0x4c, 0x2d, 0x9a, 0xbd,
  0xcf, 0xf7, 0x55, 0xbe, 0xaa, 0xdf, 0x9d, 0xbe, 0x60, 0x67, 0x08, 0xbe,
  0xff, 0x45, 0xdf, 0xbc, 0x9a, 0xcb, 0x2e, 0xbd, 0x88, 0xee, 0xed, 0x3d,
  0x7f, 0x0a, 0x9a, 0x3d, 0xba, 0xa8, 0x7f, 0xbe, 0x07, 0x19, 0x02, 0x3e,
  0xa7, 0xdc, 0x59, 0xbe, 0xc4, 0xa0, 0xa9, 0xbd, 0x0e, 0xdf, 0x30, 0xbe,
  0xb3, 0x38, 0xf8, 0xbc, 0x07, 0x21, 0x51, 0xbc, 0x44, 0x91, 0x9b, 0x3d,
  0x5a, 0x14, 0x6f, 0x3a, 0x53, 0x8c, 0x9b, 0x3c, 0xd7, 0x14, 0x4c, 0xbe,
  0xf3, 0x77, 0xaf, 0x3d, 0x93, 0x16, 0x88, 0xbe, 0x00, 0x49, 0x3d, 0x3e,
  0xeb, 0x1a, 0x01, 0xbe, 0x42, 0x8a, 0x0a, 0x3c, 0x60, 0x58, 0xb3, 0xbc,
  0xeb, 0x5a, 0x1f, 0xbe, 0x25, 0x89, 0x66, 0xbe, 0xd3, 0x68, 0xa7, 0xbd,
  0xb4, 0x75, 0x1f, 0xbe, 0x27, 0x36, 0x98, 0xbd, 0xac, 0xca, 0xb4, 0x3d,
  0x95, 0xd9, 0xc4, 0xbd, 0x6b, 0x1c, 0x63, 0xbe, 0x5c, 0xda, 0x2d, 0xbe,
  0xd8, 0xf1, 0x26, 0xbe, 0xdd, 0x62, 0x6b, 0x3d, 0x81, 0x33, 0x7d, 0xbe,
  0xea, 0x33, 0x9a, 0x3d, 0xfd, 0xce, 0x0a, 0xbb, 0xe6, 0x1f, 0x9d, 0x3d,
  0xb8, 0xc5, 0x8d, 0xbd, 0xf1, 0xd4, 0x61, 0xbe, 0xc4, 0x0f, 0x0d, 0x3c,
  0x48, 0x96, 0xc8, 0x3c, 0x1e, 0xb4, 0x36, 0xbe, 0xa3, 0xa8, 0x09, 0x3d,
  0xb2, 0x6f, 0x2d, 0x3d, 0x44, 0x8b, 0xfd, 0xbc, 0xc9, 0x13, 0xf2, 0xbb,
  0x09, 0x6f, 0x0c, 0xbe, 0x90, 0xdd, 0xb8, 0xbc, 0x21, 0xc5, 0x45, 0xbe,
  0x66, 0x48, 0x99, 0xbe, 0x32, 0xce, 0x0f, 0x3d, 0x3e, 0x31, 0x38, 0xbe,
  0x0c, 0xec, 0x91, 0xbc, 0xa0, 0x96, 0xe4, 0xbc, 0x96, 0xc1, 0x89, 0x3d,
  0x88, 0x7f, 0x8b, 0xbd, 0xcc, 0xcf, 0x18, 0xbe, 0x39, 0x31, 0xaf, 0xbe,
  0x05, 0xa7, 0x0e, 0x3e, 0x6b, 0x1b, 0x6b, 0xbe, 0x7d, 0x0d, 0xb5, 0x3d,
  0x0a, 0x2e, 0x04, 0xbe, 0xae, 0xc0, 0x23, 0x3d, 0x31, 0xa7, 0xc4, 0xbe,
  0xa3, 0xc0, 0x19, 0xbf, 0x61, 0x52, 0xa9, 0xbe, 0x36, 0xc4, 0xcf, 0x3d,
  0xd0, 0xfd, 0xa8, 0xbe, 0xca, 0x4a, 0x94, 0x3d, 0xb9, 0x33, 0x30, 0xbe,
  0x3c, 0x8a, 0x3e, 0x3d, 0x27, 0xdb, 0x0c, 0xbe, 0x9f, 0xba, 0x16, 0x3e,
  0xaa, 0x6f, 0xb9, 0xbe, 0xe3, 0xea, 0x20, 0x3e, 0xd5, 0x6b, 0xa7, 0x3c,
  0x79, 0x78, 0x0b, 0x3e, 0x70, 0x23, 0x2a, 0xbe, 0x50, 0xd3, 0x63, 0x3d,
  0x14, 0x54, 0xf8, 0xbe, 0xae, 0x08, 0xa6, 0xbe, 0x48, 0x6f, 0x92, 0xbc,
  0xab, 0x08, 0x7c, 0xbe, 0x31, 0xe9, 0x8a, 0xbd, 0x2b, 0x1e, 0x8e, 0x3d,
  0x94, 0xda, 0xb1, 0xbc, 0xf3, 0xd8, 0x63, 0x3e, 0x6e, 0xa7, 0x91, 0x3e,
  0x75, 0xb7, 0xa1, 0x3e, 0x23, 0x2b, 0x44, 0xbe, 0xb5, 0x0d, 0x95, 0x3d,
  0x43, 0xca, 0x9d, 0x3d, 0xf2, 0x5c, 0x8f, 0xbb, 0x49, 0xe4, 0xb1, 0xbe,
  0x70, 0x40, 0xb3, 0x3d, 0xea, 0x85, 0x13, 0xbe, 0x42, 0x19, 0x31, 0x3e,
  0x5a, 0xb9, 0x66, 0x3e, 0x00, 0xab, 0x01, 0xbd, 0xd1, 0x07, 0xcf, 0x3d,
  0x4c, 0x7e, 0xb2, 0x3d, 0xd6, 0x48, 0xba, 0x3d, 0x40, 0x94, 0xe6, 0x3e,
  0xc4, 0xb0, 0x00, 0x3f, 0x24, 0xa0, 0x73, 0x3e, 0x56, 0x93, 0x5d, 0x3c,
  0xc3, 0x69, 0x83, 0x3d, 0x91, 0x8d, 0xbf, 0x3e, 0x26, 0x72, 0xaf, 0xbd,
  0x12, 0x80, 0x76, 0xbd, 0xca, 0x7d, 0x86, 0xba, 0x49, 0x5e, 0xc7, 0xbc,
  0x42, 0x77, 0x6c, 0xbc, 0xee, 0x92, 0x81, 0x3e, 0xa6, 0x16, 0x5c, 0xbe,
  0xa6, 0x02, 0x90, 0x3e, 0xce, 0xc0, 0x49, 0x3d, 0x9c, 0x2b, 0x5d, 0x3e,
  0xc7, 0x06, 0xc5, 0x3e, 0x02, 0x6f, 0xe2, 0x3e, 0x7b, 0x0f, 0xf5, 0x3d,
  0xb0, 0x2d, 0x20, 0xbe, 0xf9, 0x54, 0xa9, 0x3c, 0x5b, 0x18, 0xed, 0xbd,
  0xe6, 0x81, 0xb5, 0x3d, 0x1c, 0x17, 0xa5, 0xbe, 0xac, 0xa5, 0x48, 0x3c,
  0x6e, 0x8c, 0xdc, 0xbe, 0x68, 0x6c, 0x12, 0xbf, 0xe1, 0xa3, 0xdc, 0x3c,
  0x8a, 0x1a, 0x0e, 0xbf, 0x1f, 0x3e, 0xb2, 0x3d, 0x99, 0xd3, 0x5a, 0x3c,
  0x81, 0x71, 0x9c, 0xbc, 0x7b, 0xfd, 0x93, 0x3e, 0xa5, 0x76, 0x15, 0x3e,
  0xd4, 0x4b, 0xb9, 0xbc, 0x45, 0xdb, 0x43, 0xbd, 0xf6, 0x1c, 0x0b, 0x3d,
  0x07, 0xa9, 0x8b, 0x3d, 0xdf, 0x10, 0xc5, 0xbb, 0x1f, 0x07, 0x69, 0xbe,
  0x99, 0xed, 0x23, 0x3d, 0x5e, 0xe8, 0x33, 0xbf, 0x8f, 0x0b, 0xb7, 0xbe,
  0x11, 0x43, 0x80, 0x3d, 0x9b, 0x63, 0x1b, 0xbf, 0x83, 0xed, 0x54, 0xbe,
  0x07, 0xf6, 0x27, 0xbe, 0x55, 0x8b, 0xcc, 0xbd, 0x04, 0xf6, 0x29, 0x3e,
  0x44, 0xbe, 0x5f, 0x3e, 0x68, 0x58, 0x44, 0xbc, 0x83, 0xbd, 0x9e, 0xba,
  0xbf, 0x5f, 0x5e, 0x3d, 0x0f, 0xee, 0x69, 0x3d, 0xb2, 0xb5, 0x55, 0xbd,
  0x76, 0x64, 0x90, 0xbe, 0x20, 0xe3, 0x2b, 0x3d, 0x90, 0x07, 0xa2, 0xbe,
  0x81, 0x91, 0x07, 0x3e, 0x0d, 0xb0, 0x1f, 0xbe, 0x23, 0x2f, 0x1b, 0xbe,
  0x0b, 0x4b, 0x9d, 0x3d, 0x0e, 0x41, 0xad, 0x3d, 0x49, 0x78, 0xcb, 0xbd,
  0x94, 0xe2, 0xad, 0x3c, 0x3d, 0xb9, 0xa7, 0xbd, 0xd4, 0x31, 0x7c, 0xbd,
  0x99, 0x47, 0x96, 0x3e, 0xc7, 0xa1, 0xfa, 0x3d, 0x95, 0xab, 0x57, 0xbe,
  0x34, 0x15, 0x10, 0xbf, 0xb0, 0xb0, 0x1b, 0x3e, 0x80, 0x0d, 0x2e, 0x3c,
  0xa2, 0xe8, 0xbb, 0xbd, 0x73, 0x64, 0xe8, 0x3c, 0x76, 0x1c, 0x05, 0x3d,
  0xe9, 0x3e, 0x74, 0x3d, 0xdc, 0x0e, 0x20, 0x3d, 0x32, 0xdf, 0x71, 0xbc,
  0x73, 0xbf, 0xf8, 0xbd, 0x61, 0x68, 0x03, 0xbf, 0xc9, 0x58, 0xec, 0xbe,
  0x3e, 0x34, 0x30, 0xbf, 0xc5, 0xa0, 0x25, 0x3e, 0x03, 0xb3, 0x90, 0xbc,
  0x5f, 0x47, 0x47, 0xbd, 0xcb, 0xd4, 0x3c, 0x3e, 0x47, 0x4d, 0x4a, 0x3d,
  0x0f, 0x0b, 0xcb, 0xbc, 0x80, 0xb3, 0x37, 0x3f, 0xe9, 0x20, 0x35, 0x3d,
  0x65, 0xd1, 0xbe, 0xbd, 0x02, 0x31, 0x7a, 0x3e, 0xec, 0x29, 0x56, 0xbe,
  0x58, 0xf6, 0x9a, 0xbb, 0xc5, 0x61, 0x11, 0x3e, 0x4b, 0x15, 0x9e, 0xbe,
  0x96, 0x80, 0x8a, 0xbe, 0xe8, 0x78, 0x98, 0xbe, 0x43, 0x47, 0x7e, 0x3e,
  0x60, 0x46, 0x47, 0x3d, 0x5b, 0xbd, 0x04, 0x3e, 0xc4, 0x39, 0x87, 0x3d,
  0x0b, 0x97, 0x67, 0x3d, 0xe2, 0x2c, 0xeb, 0xbc, 0x72, 0x1f, 0xac, 0x3f,
  0x79, 0xb1, 0x73, 0xbd, 0xc1, 0x2f, 0x23, 0xbe, 0x91, 0xf4, 0x51, 0xbc,
  0x40, 0xaa, 0xaa, 0x3e, 0x58, 0x52, 0x5e, 0x3d, 0x7c, 0x02, 0x37, 0x3e,
  0xbf, 0x94, 0x9e, 0xbb, 0xa6, 0xbe, 0xb5, 0xbe, 0x50, 0x52, 0x52, 0x3e,
  0x58, 0xf6, 0x98, 0x3e, 0x03, 0xb2, 0x3c, 0x3b, 0x54, 0x34, 0x25, 0xbd,
  0x29, 0xea, 0x8c, 0x3d, 0x95, 0x28, 0x43, 0x3e, 0x11, 0x2d, 0x05, 0x3d,
  0x6e, 0x63, 0xac, 0x3f, 0xb5, 0x44, 0x37, 0xbe, 0x59, 0x0f, 0x37, 0x3e,
  0xc3, 0x26, 0x22, 0x3d, 0x11, 0x33, 0x50, 0x3e, 0xe9, 0x03, 0x90, 0x3d,
  0xc6, 0xdc, 0x6c, 0x3e, 0x14, 0x6b, 0x15, 0xbe, 0xbf, 0x1c, 0xa9, 0xbe,
  0xa3, 0xe3, 0x8c, 0xbe, 0x70, 0x8d, 0x9a, 0x3e, 0xb5, 0x97, 0xfc, 0xbc,
  0x61, 0x7d, 0xf1, 0xbc, 0xde, 0x17, 0x41, 0xbe, 0xdc, 0xb9, 0x1b, 0x3e,
  0xa9, 0x6a, 0xc7, 0xbc, 0x3b, 0x40, 0x77, 0x3e, 0x33, 0xf7, 0x28, 0xbe,
  0x66, 0x72, 0xb0, 0x3c, 0x20, 0x78, 0x98, 0xbd, 0xe9, 0x9e, 0xbc, 0x3d,
  0x4e, 0xc3, 0x63, 0xbd, 0x1c, 0xf7, 0x9d, 0xbd, 0xeb, 0x68, 0x03, 0xbf,
  0x3c, 0x15, 0x38, 0xbf, 0x67, 0xad, 0x99, 0xbe, 0x9a, 0x04, 0xc7, 0x3e,
  0x03, 0xe5, 0x22, 0x3e, 0x1b, 0x16, 0xa1, 0xbe, 0x61, 0x77, 0xcb, 0xbd,
  0xca, 0xae, 0x1e, 0x3e, 0xfd, 0xcf, 0x5e, 0x3d, 0x44, 0xdf, 0xb4, 0x3c,
  0xbc, 0xd1, 0x09, 0xbe, 0x7f, 0x61, 0x03, 0x3d, 0x3f, 0x03, 0xc7, 0x3c,
  0x95, 0xaf, 0x09, 0x3e, 0x77, 0x87, 0x22, 0xbd, 0x94, 0xba, 0xff, 0xbc,
  0x6b, 0x97, 0xa0, 0xbe, 0xd8, 0x4f, 0x8c, 0xbe, 0x91, 0xf0, 0x57, 0xbe,
  0xc7, 0x8d, 0x27, 0x3d, 0xfd, 0x77, 0x5d, 0x3d, 0xa7, 0xa3, 0x01, 0xbe,
  0x9f, 0x24, 0xa4, 0x3c, 0xda, 0xb2, 0x85, 0x3c, 0xf1, 0x8b, 0x93, 0x3d,
  0x04, 0x2c, 0xc0, 0x3d, 0x41, 0x13, 0x07, 0xbd, 0xf6, 0x50, 0x98, 0x3c,
  0x00, 0x4e, 0x08, 0xbe, 0x62, 0x73, 0x17, 0x3c, 0xce, 0x0c, 0x99, 0xbd,
  0x14, 0x28, 0xbb, 0x3d, 0x14, 0xbf, 0xed, 0xbd, 0x35, 0xcb, 0xc8, 0xbc,
  0x4e, 0xf9, 0xd2, 0xbd, 0xd8, 0x68, 0x83, 0xbe, 0x0b, 0x99, 0x53, 0x3e,
  0xd5, 0xb3, 0x8d, 0xbe, 0x91, 0xb9, 0x00, 0x3e, 0x2e, 0x29, 0x6d, 0xbe,
  0x4d, 0x0f, 0xdd, 0x3c, 0xb6, 0x8b, 0x75, 0xbe, 0xb6, 0xdc, 0xc7, 0xbe,
  0xbe, 0xca, 0x02, 0xbf, 0xfa, 0xc9, 0xde, 0x3d, 0x89, 0xce, 0xa9, 0xbe,
  0x0d, 0xc0, 0x5f, 0x3e, 0x1f, 0x99, 0x0b, 0xbe, 0xee, 0xba, 0x20, 0x3e,
  0x72, 0x96, 0x11, 0xbe, 0x64, 0xe4, 0x14, 0x3e, 0xdd, 0x05, 0xbf, 0xbe,
  0x8c, 0x9f, 0x30, 0x3e, 0x6a, 0xa7, 0x03, 0x3e, 0x23, 0xdb, 0xd8, 0x3d,
  0xe3, 0x72, 0x95, 0xbe, 0x5e, 0xbe, 0x1f, 0x3d, 0x7c, 0x10, 0xc7, 0xbe,
  0x4c, 0xe1, 0xf0, 0x3b, 0x74, 0xe1, 0x4b, 0xbd, 0x33, 0x2a, 0x3a, 0x3d,
  0x56, 0xbe, 0x0e, 0xbe, 0x5d, 0xe9, 0x00, 0x3e, 0xa7, 0x76, 0x00, 0x3d,
  0x06, 0x41, 0xd4, 0x3e, 0xf2, 0x2f, 0xab, 0x3e, 0xfa, 0xf0, 0x51, 0x3e,
  0x47, 0xd9, 0xd4, 0x3d, 0xac, 0x8d, 0x04, 0x3e, 0xaf, 0x00, 0xc9, 0x3d,
  0xb2, 0xa4, 0x35, 0xbd, 0xfd, 0x4b, 0xc2, 0xbe, 0x9e, 0xe4, 0x8a, 0x3d,
  0x6f, 0xd6, 0x39, 0xbe, 0x7b, 0x9e, 0xba, 0x3e, 0x54, 0x1f, 0x0d, 0x3e,
  0x9f, 0x2b, 0x22, 0x3e, 0x5a, 0xc4, 0xa7, 0xbd, 0x4b, 0x17, 0x1b, 0xbb,
  0x1c, 0x46, 0xca, 0x3d, 0x27, 0x3e, 0xfb, 0x3e, 0x74, 0x17, 0xea, 0x3e,
  0xb4, 0xec, 0xb9, 0x3d, 0xba, 0x72, 0x18, 0xbd, 0x15, 0x3d, 0xb3, 0x3d,
  0x55, 0x19, 0x96, 0x3e, 0x79, 0x21, 0xa6, 0x3d, 0xfa, 0x1e, 0x90, 0xbe,
  0x16, 0xf1, 0xe7, 0x3d, 0xa6, 0x89, 0xee, 0xbd, 0x23, 0xdf, 0x7e, 0xbd,
  0xc0, 0x3b, 0x7d, 0x3d, 0x34, 0xd5, 0x19, 0xbe, 0xa2, 0x2d, 0xb3, 0xbc,
  0xec, 0xa9, 0x94, 0x3d, 0xcc, 0x49, 0x24, 0x3e, 0x76, 0x5f, 0xcc, 0x3e,
  0xb5, 0x4e, 0x31, 0x3f, 0x32, 0x57, 0x69, 0xbd, 0xb0, 0xfd, 0x37, 0xbe,
  0xaa, 0xac, 0x6a, 0x3e, 0x7d, 0x04, 0xac, 0xbc, 0x63, 0x93, 0x32, 0x3e,
  0xcb, 0x63, 0xe0, 0xbe, 0x3d, 0xe6, 0x6e, 0x3d, 0xf4, 0xf8, 0xf8, 0xbe,
  0xa4, 0x80, 0xec, 0xbe, 0x70, 0xc2, 0x79, 0xbc, 0x97, 0x08, 0xbc, 0xbe,
  0xdd, 0xf4, 0x5c, 0x3b, 0x53, 0xda, 0x24, 0x3e, 0x63, 0xa6, 0x6c, 0x3d,
  0x5f, 0xf8, 0x80, 0x3e, 0x8a, 0xb3, 0x78, 0x3e, 0xd5, 0xe4, 0x58, 0x3c,
  0xdc, 0x60, 0xc8, 0xbd, 0x17, 0xb4, 0xaa, 0x3d, 0x86, 0x72, 0xe5, 0xba,
  0x81, 0x1a, 0xe3, 0xbc, 0xf5, 0xa0, 0xb9, 0xbe, 0x58, 0xbf, 0x86, 0x3d,
  0x0b, 0x03, 0x2f, 0xbf, 0x44, 0xe6, 0xcb, 0xbe, 0xfe, 0x70, 0xae, 0x3d,
  0x06, 0xde, 0x8d, 0xbe, 0x2e, 0xc4, 0xa9, 0xbe, 0x04, 0x24, 0x2b, 0x3b,
  0x18, 0xf5, 0x71, 0x3c, 0x58, 0x48, 0x14, 0x3e, 0x24, 0x2f, 0x8a, 0x3e,
  0x41, 0x6d, 0x18, 0xbd, 0x2b, 0x5e, 0x64, 0xbc, 0xc8, 0x72, 0x9e, 0x3d,
  0xff, 0x94, 0x62, 0x3d, 0x06, 0x36, 0xbe, 0x3c, 0x62, 0x1f, 0x96, 0xbe,
  0xea, 0xea, 0xf3, 0x3b, 0x05, 0xb1, 0xeb, 0xbd, 0xdc, 0x1e, 0x21, 0x3e,
  0xb8, 0x6b, 0x69, 0xbe, 0xcc, 0xbf, 0x57, 0xbe, 0xc5, 0x94, 0xe8, 0x3b,
  0xe8, 0x37, 0xa7, 0x3d, 0xcd, 0x4a, 0xbd, 0x3b, 0xec, 0x28, 0x4a, 0xbc,
  0xc4, 0x95, 0x5b, 0xbe, 0x73, 0xae, 0x09, 0x3c, 0x92, 0xed, 0x67, 0x3e,
  0x63, 0xcc, 0x6a, 0x3d, 0xad, 0xde, 0x66, 0xbe, 0xf9, 0xb0, 0xca, 0xbe,
  0x88, 0x70, 0x3c, 0x3e, 0x0e, 0x5c, 0x26, 0x3e, 0x1a, 0xa4, 0x68, 0xbd,
  0x41, 0xd6, 0xbe, 0x3c, 0x67, 0x5b, 0xc2, 0x3d, 0xdb, 0x7b, 0xf8, 0xbb,
  0x0a, 0x84, 0x49, 0x3d, 0x27, 0xa8, 0x6a, 0xbe, 0x65, 0x25, 0xd7, 0xbd,
  0x1c, 0x6d, 0xc5, 0xbe, 0xce, 0x98, 0x77, 0xbe, 0x35, 0x1f, 0x60, 0xbf,
  0xc2, 0xff, 0x29, 0x3e, 0x83, 0x24, 0x27, 0xbe, 0xe8, 0xb3, 0x1f, 0xbe,
  0x71, 0xee, 0xf4, 0x3d, 0xe4, 0x54, 0xc5, 0xbe, 0xea, 0x2b, 0x82, 0xbc,
  0x8c, 0x20, 0x6c, 0x3f, 0xc0, 0xa9, 0x5a, 0xbe, 0xa8, 0xe1, 0x95, 0x3c,
  0x9f, 0x7b, 0x96, 0xbe, 0x57, 0xf0, 0x91, 0xbd, 0xba, 0x40, 0xa8, 0xbd,
  0x70, 0x95, 0xbf, 0x3d, 0x0f, 0x51, 0xf8, 0xbe, 0x4b, 0x13, 0x5c, 0xbe,
  0x02, 0x36, 0x41, 0xbf, 0x4f, 0x83, 0x3f, 0x3e, 0x8c, 0xda, 0x1c, 0xbe,
  0x4d, 0xa5, 0xa6, 0xbe, 0xc4, 0xcc, 0x66, 0x3e, 0x34, 0x18, 0x34, 0x3e,
  0x59, 0xc1, 0xed, 0xbd, 0xe2, 0xd2, 0x37, 0x3f, 0x46, 0x16, 0x57, 0x3d,
  0x45, 0x3b, 0x5e, 0xbe, 0x09, 0x46, 0x61, 0x3e, 0x02, 0xc3, 0x67, 0x3e,
  0xa4, 0x14, 0xe3, 0xbd, 0x88, 0x01, 0x82, 0x3e, 0x2b, 0xd1, 0x71, 0xbe,
  0x7c, 0xb3, 0x40, 0xbe, 0x42, 0xce, 0x83, 0x3e, 0xf0, 0x1c, 0x17, 0x3d,
  0x92, 0xd9, 0x07, 0xbe, 0x66, 0xae, 0x54, 0x3d, 0x96, 0x67, 0x62, 0x3d,
  0x61, 0x08, 0x5d, 0x3e, 0xd3, 0x23, 0x96, 0xbb, 0xb7, 0x78, 0x4d, 0x3f,
  0x97, 0xe5, 0x34, 0x3d, 0x50, 0x34, 0xad, 0x3d, 0xd0, 0x00, 0x58, 0x3e,
  0x7e, 0xca, 0x8e, 0x3e, 0xa1, 0xf9, 0xe0, 0xbd, 0x4e, 0xcd, 0x28, 0x3e,
  0xda, 0x3a, 0xca, 0xbe, 0x8f, 0x46, 0xa7, 0xbe, 0xd4, 0x51, 0xeb, 0x3d,
  0xe2, 0x5f, 0x80, 0x3e, 0xbc, 0x98, 0xd6, 0x3d, 0xfe, 0x72, 0x17, 0xbe,
  0x58, 0x04, 0x17, 0xbd, 0x66, 0x9c, 0x21, 0x3d, 0x0e, 0x70, 0x3f, 0x3c,
  0x01, 0xb2, 0x16, 0x3f, 0x32, 0xf7, 0xb1, 0xbe, 0x20, 0xc1, 0x2d, 0xbd,
  0xe7, 0x1a, 0x8b, 0xbe, 0xf3, 0x2b, 0x57, 0x3e, 0x70, 0x35, 0x22, 0x3d,
  0x73, 0x1a, 0x6a, 0xbe, 0x44, 0xa8, 0x1b, 0xbf, 0xb9, 0x8a, 0x19, 0xbf,
  0x14, 0x74, 0xcd, 0xbe, 0x8e, 0xac, 0xf6, 0x3e, 0x8f, 0x32, 0x71, 0xbc,
  0x23, 0x0c, 0xf8, 0xbe, 0x03, 0x8d, 0x95, 0x3c, 0x71, 0x1b, 0x48, 0x3d,
  0x7c, 0x5a, 0x20, 0xbd, 0x46, 0x25, 0xc4, 0x3e, 0x97, 0xe7, 0xbb, 0xbd,
  0xde, 0xa4, 0x85, 0xbb, 0xa1, 0x6f, 0x0a, 0xbe, 0x76, 0xed, 0xa9, 0x3d,
  0xea, 0xc6, 0x6f, 0x3d, 0x10, 0x22, 0xe3, 0xbb, 0x3b, 0xaa, 0xdb, 0xbe,
  0xce, 0xb8, 0x93, 0xbe, 0x17, 0xf4, 0x12, 0xbe, 0x72, 0x46, 0xb4, 0xbd,
  0xfc, 0xce, 0x91, 0x3d, 0xf5, 0x4d, 0xb9, 0xbe, 0x11, 0xe1, 0x26, 0x3e,
  0x00, 0xe0, 0xd6, 0xbb, 0x5d, 0x79, 0xc3, 0xbd, 0xf5, 0xb0, 0xcc, 0x3e,
  0x78, 0xd6, 0xad, 0x3b, 0x50, 0x41, 0x5d, 0xbd, 0xf3, 0xbe, 0x17, 0xbe,
  0x88, 0x3c, 0xa5, 0xbd, 0xeb, 0x5e, 0x96, 0xbc, 0x43, 0x74, 0x29, 0x3d,
  0xda, 0x9f, 0x3c, 0xbe, 0xd7, 0xdb, 0xfa, 0xbd, 0xc8, 0xb2, 0xf4, 0xbc,
  0x66, 0xfd, 0xff, 0xff, 0x10, 0x00, 0x00, 0x00, 0x07, 0x00, 0x00, 0x00,
  0x14, 0x00, 0x00, 0x00, 0x2c, 0x00, 0x00, 0x00, 0x02, 0x00, 0x00, 0x00,
  0x10, 0x00, 0x00, 0x00, 0x70, 0x00, 0x00, 0x00, 0x17, 0x00, 0x00, 0x00,
  0x73, 0x65, 0x71, 0x75, 0x65, 0x6e, 0x74, 0x69, 0x61, 0x6c, 0x2f, 0x64,
  0x65, 0x6e, 0x73, 0x65, 0x2f, 0x4d, 0x61, 0x74, 0x4d, 0x75, 0x6c, 0x00,
  0xd0, 0xfc, 0xff, 0xff, 0xda, 0xfd, 0xff, 0xff, 0x04, 0x00, 0x00, 0x00,
  0x08, 0x00, 0x00, 0x00, 0xff, 0xff, 0xff, 0xff, 0x70, 0x00, 0x00, 0x00,
  0x00, 0x00, 0x0e, 0x00, 0x18, 0x00, 0x08, 0x00, 0x07, 0x00, 0x0c, 0x00,
  0x10, 0x00, 0x14, 0x00, 0x0e, 0x00, 0x00, 0x00, 0x00, 0x00, 0x00, 0x02,
  0x10, 0x00, 0x00, 0x00, 0x06, 0x00, 0x00, 0x00, 0x10, 0x00, 0x00, 0x00,
  0x2c, 0x00, 0x00, 0x00, 0x01, 0x00, 0x00, 0x00, 0x02, 0x00, 0x00, 0x00,
  0x18, 0x00, 0x00, 0x00, 0x73, 0x65, 0x71, 0x75, 0x65, 0x6e, 0x74, 0x69,
  0x61, 0x6c, 0x2f, 0x66, 0x6c, 0x61, 0x74, 0x74, 0x65, 0x6e, 0x2f, 0x43,
  0x6f, 0x6e, 0x73, 0x74, 0x00, 0x00, 0x00, 0x00, 0x38, 0xfd, 0xff, 0xff,
  0x42, 0xfe, 0xff, 0xff, 0x04, 0x00, 0x00, 0x00, 0x0c, 0x00, 0x00, 0x00,
  0x42, 0xec, 0x86, 0xbf, 0x9e, 0xe8, 0x6b, 0x3f, 0x8f, 0xd5, 0x57, 0xbe,
  0x26, 0xfe, 0xff, 0xff, 0x10, 0x00, 0x00, 0x00, 0x05, 0x00, 0x00, 0x00,
  0x10, 0x00, 0x00, 0x00, 0x44, 0x00, 0x00, 0x00, 0x01, 0x00, 0x00, 0x00,
  0x03, 0x00, 0x00, 0x00, 0x32, 0x00, 0x00, 0x00, 0x73, 0x65, 0x71, 0x75,
  0x65, 0x6e, 0x74, 0x69, 0x61, 0x6c, 0x2f, 0x64, 0x65, 0x6e, 0x73, 0x65,
  0x5f, 0x31, 0x2f, 0x42, 0x69, 0x61, 0x73, 0x41, 0x64, 0x64, 0x2f, 0x52,
  0x65, 0x61, 0x64, 0x56, 0x61, 0x72, 0x69, 0x61, 0x62, 0x6c, 0x65, 0x4f,
  0x70, 0x2f, 0x72, 0x65, 0x73, 0x6f, 0x75, 0x72, 0x63, 0x65, 0x00, 0x00,
  0xa8, 0xfd, 0xff, 0xff, 0xb2, 0xfe, 0xff, 0xff, 0x04, 0x00, 0x00, 0x00,
  0x40, 0x00, 0x00, 0x00, 0x22, 0x04, 0x2b, 0x3f, 0x98, 0xf7, 0x72, 0xbf,
  0x84, 0xd8, 0x31, 0x3f, 0x88, 0x15, 0xbf, 0xbf, 0xf9, 0x2b, 0x1a, 0x40,
  0xd0, 0x2f, 0x51, 0xbe, 0x5b, 0xca, 0x1f, 0xbe, 0x9e, 0xa8, 0xdd, 0xbf,
  0x34, 0x6f, 0x7d, 0x40, 0x57, 0xf5, 0x14, 0xbd, 0xa2, 0x36, 0x36, 0x40,
  0x4e, 0xec, 0x19, 0xbe, 0x54, 0x4e, 0x7b, 0x40, 0x36, 0x26, 0x17, 0x40,
  0x87, 0xd1, 0x64, 0x40, 0xb0, 0x6a, 0x3e, 0x3f, 0xca, 0xfe, 0xff, 0xff,
  0x10, 0x00, 0x00, 0x00, 0x04, 0x00, 0x00, 0x00, 0x10, 0x00, 0x00, 0x00,
  0x44, 0x00, 0x00, 0x00, 0x01, 0x00, 0x00, 0x00, 0x10, 0x00, 0x00, 0x00,
  0x30, 0x00, 0x00, 0x00, 0x73, 0x65, 0x71, 0x75, 0x65, 0x6e, 0x74, 0x69,
  0x61, 0x6c, 0x2f, 0x64, 0x65, 0x6e, 0x73, 0x65, 0x2f, 0x42, 0x69, 0x61,
  0x73, 0x41, 0x64, 0x64, 0x2f, 0x52, 0x65, 0x61, 0x64, 0x56, 0x61, 0x72,
  0x69, 0x61, 0x62, 0x6c, 0x65, 0x4f, 0x70, 0x2f, 0x72, 0x65, 0x73, 0x6f,
  0x75, 0x72, 0x63, 0x65, 0x00, 0x00, 0x00, 0x00, 0x4c, 0xfe, 0xff, 0xff,
  0x56, 0xff, 0xff, 0xff, 0x04, 0x00, 0x00, 0x00, 0x40, 0x00, 0x00, 0x00,
  0xdc, 0x64, 0xc1, 0xbf, 0xe5, 0xe6, 0x06, 0x40, 0x98, 0xb5, 0xf3, 0xbe,
  0xe5, 0x0f, 0x1c, 0x3d, 0x13, 0xcf, 0xe2, 0xbf, 0xa5, 0x03, 0x98, 0x3f,
  0x05, 0x52, 0xe5, 0x40, 0x68, 0x53, 0x6c, 0x3d, 0xde, 0xf7, 0x58, 0xbf,
  0xae, 0x40, 0xcf, 0xbc, 0x58, 0xc8, 0x33, 0xc0, 0xbd, 0xaa, 0x7f, 0x3e,
  0x7d, 0xf8, 0x6e, 0xbf, 0x4c, 0xfd, 0x28, 0xbe, 0x12, 0x8a, 0x3d, 0xbf,
  0xe3, 0x46, 0x3e, 0xbd, 0x6e, 0xff, 0xff, 0xff, 0x10, 0x00, 0x00, 0x00,
  0x03, 0x00, 0x00, 0x00, 0x10, 0x00, 0x00, 0x00, 0x48, 0x00, 0x00, 0x00,
  0x01, 0x00, 0x00, 0x00, 0x10, 0x00, 0x00, 0x00, 0x33, 0x00, 0x00, 0x00,
  0x73, 0x65, 0x71, 0x75, 0x65, 0x6e, 0x74, 0x69, 0x61, 0x6c, 0x2f, 0x63,
  0x6f, 0x6e, 0x76, 0x32, 0x64, 0x5f, 0x31, 0x2f, 0x42, 0x69, 0x61, 0x73,
  0x41, 0x64, 0x64, 0x2f, 0x52, 0x65, 0x61, 0x64, 0x56, 0x61, 0x72, 0x69,
  0x61, 0x62, 0x6c, 0x65, 0x4f, 0x70, 0x2f, 0x72, 0x65, 0x73, 0x6f, 0x75,
  0x72, 0x63, 0x65, 0x00, 0x04, 0x00, 0x06, 0x00, 0x04, 0x00, 0x00, 0x00,
  0x00, 0x00, 0x06, 0x00, 0x08, 0x00, 0x04, 0x00, 0x06, 0x00, 0x00, 0x00,
  0x04, 0x00, 0x00, 0x00, 0x20, 0x00, 0x00, 0x00, 0x4b, 0x00, 0x0d, 0xc0,
  0xa5, 0xc5, 0x02, 0xbd, 0x2c, 0x9a, 0x18, 0xbe, 0x63, 0xc9, 0x27, 0xc0,
  0x81, 0xb3, 0x83, 0xbf, 0xca, 0xe3, 0x07, 0xc0, 0x6f, 0xe2, 0x51, 0xc0,
  0x3b, 0x80, 0x57, 0xc0, 0x00, 0x00, 0x0e, 0x00, 0x14, 0x00, 0x04, 0x00,
  0x00, 0x00, 0x08, 0x00, 0x0c, 0x00, 0x10, 0x00, 0x0e, 0x00, 0x00, 0x00,
  0x10, 0x00, 0x00, 0x00, 0x02, 0x00, 0x00, 0x00, 0x10, 0x00, 0x00, 0x00,
  0x44, 0x00, 0x00, 0x00, 0x01, 0x00, 0x00, 0x00, 0x08, 0x00, 0x00, 0x00,
  0x31, 0x00, 0x00, 0x00, 0x73, 0x65, 0x71, 0x75, 0x65, 0x6e, 0x74, 0x69,
  0x61, 0x6c, 0x2f, 0x63, 0x6f, 0x6e, 0x76, 0x32, 0x64, 0x2f, 0x42, 0x69,
  0x61, 0x73, 0x41, 0x64, 0x64, 0x2f, 0x52, 0x65, 0x61, 0x64, 0x56, 0x61,
  0x72, 0x69, 0x61, 0x62, 0x6c, 0x65, 0x4f, 0x70, 0x2f, 0x72, 0x65, 0x73,
  0x6f, 0x75, 0x72, 0x63, 0x65, 0x00, 0x00, 0x00, 0x90, 0xff, 0xff, 0xff,
  0x14, 0x00, 0x18, 0x00, 0x04, 0x00, 0x00, 0x00, 0x08, 0x00, 0x0c, 0x00,
  0x10, 0x00, 0x00, 0x00, 0x00, 0x00, 0x14, 0x00, 0x14, 0x00, 0x00, 0x00,
  0x14, 0x00, 0x00, 0x00, 0x01, 0x00, 0x00, 0x00, 0x20, 0x00, 0x00, 0x00,
  0x44, 0x00, 0x00, 0x00, 0x2c, 0x00, 0x00, 0x00, 0x04, 0x00, 0x00, 0x00,
  0x01, 0x00, 0x00, 0x00, 0x40, 0x00, 0x00, 0x00, 0x03, 0x00, 0x00, 0x00,
  0x01, 0x00, 0x00, 0x00, 0x0c, 0x00, 0x00, 0x00, 0x63, 0x6f, 0x6e, 0x76,
  0x32, 0x64, 0x5f, 0x69, 0x6e, 0x70, 0x75, 0x74, 0x00, 0x00, 0x00, 0x00,
  0x04, 0x00, 0x00, 0x00, 0xff, 0xff, 0xff, 0xff, 0x40, 0x00, 0x00, 0x00,
  0x03, 0x00, 0x00, 0x00, 0x01, 0x00, 0x00, 0x00, 0xfc, 0xff, 0xff, 0xff,
  0x04, 0x00, 0x04, 0x00, 0x04, 0x00, 0x00, 0x00// Paste the data of the char array in `src/model.cc` here
};

unsigned int model_tflite_len = 13052;// Fill the int in `src/model.cc` here